<pad>	0
<s>	0
</s>	0
<unk>	0
▁t	-0
▁a	-1
he	-2
in	-3
▁s	-4
▁the	-5
re	-6
on	-7
er	-8
▁w	-9
▁c	-10
▁.	-11
▁,	-12
▁o	-13
en	-14
▁p	-15
▁b	-16
an	-17
ed	-18
at	-19
▁f	-20
or	-21
▁m	-22
it	-23
es	-24
▁in	-25
is	-26
ar	-27
ing	-28
▁to	-29
▁h	-30
al	-31
▁an	-32
▁of	-33
▁d	-34
ou	-35
as	-36
ic	-37
▁n	-38
id	-39
le	-40
▁and	-41
ion	-42
ro	-43
il	-44
▁th	-45
ent	-46
▁re	-47
▁g	-48
▁l	-49
▁e	-50
ay	-51
om	-52
▁be	-53
▁u	-54
ve	-55
st	-56
ad	-57
▁on	-58
ut	-59
▁st	-60
▁sa	-61
▁for	-62
ol	-63
▁he	-64
ir	-65
ter	-66
ur	-67
▁k	-68
ac	-69
im	-70
ig	-71
am	-72
▁said	-73
ly	-74
ot	-75
ec	-76
▁is	-77
ation	-78
ver	-79
▁that	-80
ill	-81
ore	-82
▁r	-83
▁we	-84
et	-85
▁it	-86
ow	-87
ld	-88
▁wh	-89
us	-90
▁y	-91
▁as	-92
▁at	-93
ort	-94
▁j	-95
▁was	-96
▁de	-97
ce	-98
▁al	-99
ith	-100
▁ch	-101
▁con	-102
▁with	-103
un	-104
oun	-105
ers	-106
▁ne	-107
ment	-108
res	-109
se	-110
▁pro	-111
ist	-112
day	-113
est	-114
op	-115
ate	-116
▁v	-117
ak	-118
her	-119
el	-120
ul	-121
▁com	-122
and	-123
ain	-124
▁un	-125
ri	-126
out	-127
▁le	-128
ct	-129
ap	-130
ave	-131
rom	-132
ch	-133
ag	-134
▁se	-135
▁sh	-136
▁from	-137
▁by	-138
igh	-139
os	-140
ial	-141
art	-142
if	-143
▁has	-144
▁sp	-145
▁su	-146
ast	-147
▁af	-148
ear	-149
▁are	-150
▁ex	-151
▁his	-152
▁off	-153
▁have	-154
▁go	-155
ity	-156
red	-157
pp	-158
ies	-159
▁ab	-160
ice	-161
oc	-162
▁pres	-163
▁tr	-164
ould	-165
▁kore	-166
▁year	-167
end	-168
ts	-169
our	-170
▁will	-171
▁but	-172
em	-173
ident	-174
ab	-175
um	-176
ack	-177
ong	-178
▁rep	-179
▁not	-180
▁were	-181
▁ag	-182
▁ar	-183
ive	-184
ud	-185
▁pl	-186
all	-187
ian	-188
od	-189
th	-190
ess	-191
qu	-192
▁who	-193
ia	-194
▁new	-195
iv	-196
▁wor	-197
▁pol	-198
ary	-199
▁or	-200
cc	-201
▁pe	-202
gh	-203
▁cl	-204
▁after	-205
▁they	-206
ry	-207
▁mon	-208
ie	-209
ight	-210
ect	-211
▁whe	-212
ust	-213
ok	-214
ren	-215
▁had	-216
ich	-217
ound	-218
ost	-219
mer	-220
ome	-221
ard	-222
ide	-223
▁been	-224
▁ro	-225
ant	-226
▁president	-227
ge	-228
ra	-229
▁this	-230
▁i	-231
▁min	-232
▁its	-233
▁tw	-234
ther	-235
▁their	-236
▁res	-237
▁peop	-238
▁say	-239
▁people	-240
▁out	-241
▁ad	-242
▁part	-243
ign	-244
▁int	-245
▁offic	-246
▁about	-247
▁more	-248
ber	-249
ord	-250
ount	-251
ated	-252
vern	-253
ime	-254
▁ir	-255
ine	-256
▁nort	-257
▁pr	-258
ans	-259
▁per	-260
ions	-261
▁two	-262
▁me	-263
▁exp	-264
▁govern	-265
ks	-266
uc	-267
▁sec	-268
▁inc	-269
▁comp	-270
▁up	-271
▁acc	-272
▁her	-273
▁en	-274
ace	-275
▁korea	-276
▁dis	-277
▁report	-278
▁which	-279
▁all	-280
▁over	-281
ous	-282
▁she	-283
▁one	-284
ree	-285
▁man	-286
ations	-287
iz	-288
ough	-289
▁cont	-290
so	-291
esday	-292
ke	-293
▁gr	-294
▁government	-295
age	-296
ates	-297
▁sout	-298
pt	-299
▁would	-300
▁official	-301
▁mil	-302
▁mar	-303
▁att	-304
▁br	-305
cent	-306
ib	-307
ip	-308
▁than	-309
▁north	-310
man	-311
▁state	-312
ub	-313
▁us	-314
ational	-315
▁inter	-316
▁count	-317
ors	-318
▁also	-319
▁do	-320
▁sc	-321
▁cr	-322
av	-323
ure	-324
▁fir	-325
own	-326
ang	-327
der	-328
ass	-329
▁im	-330
▁comm	-331
ff	-332
ical	-333
▁other	-334
ue	-335
ake	-336
ite	-337
ters	-338
▁no	-339
ile	-340
▁can	-341
nn	-342
▁ind	-343
ail	-344
▁last	-345
lo	-346
▁cnn	-347
▁day	-348
▁police	-349
hed	-350
aq	-351
▁mo	-352
▁jo	-353
ish	-354
▁when	-355
▁dec	-356
ited	-357
▁first	-358
ond	-359
ire	-360
▁south	-361
▁iraq	-362
▁app	-363
ict	-364
ence	-365
ition	-366
▁la	-367
▁lead	-368
▁so	-369
▁qu	-370
▁te	-371
ell	-372
▁there	-373
lect	-374
▁wee	-375
▁milit	-376
illion	-377
▁inv	-378
ase	-379
▁bus	-380
▁co	-381
▁am	-382
▁bec	-383
▁dem	-384
act	-385
▁some	-386
▁into	-387
int	-388
ade	-389
▁fin	-390
one	-391
▁ob	-392
▁car	-393
ild	-394
iss	-395
▁cam	-396
ince	-397
▁ev	-398
ning	-399
og	-400
▁fr	-401
▁chin	-402
▁ser	-403
ied	-404
aus	-405
▁bl	-406
ep	-407
▁kill	-408
lic	-409
old	-410
enc	-411
▁tal	-412
▁war	-413
▁told	-414
oup	-415
▁op	-416
▁time	-417
ll	-418
ose	-419
▁world	-420
ned	-421
ress	-422
lear	-423
ru	-424
▁li	-425
▁years	-426
▁work	-427
ved	-428
▁percent	-429
ance	-430
▁pre	-431
▁fe	-432
▁call	-433
▁korean	-434
ally	-435
itt	-436
▁sun	-437
ama	-438
lud	-439
▁bo	-440
▁elect	-441
ens	-442
ey	-443
li	-444
▁act	-445
▁month	-446
very	-447
orm	-448
are	-449
▁them	-450
▁week	-451
ater	-452
▁again	-453
▁accord	-454
wn	-455
▁united	-456
▁you	-457
ities	-458
we	-459
con	-460
▁officials	-461
▁could	-462
ces	-463
▁fl	-464
fe	-465
▁if	-466
oll	-467
▁according	-468
▁under	-469
▁ear	-470
reat	-471
▁country	-472
▁includ	-473
hing	-474
arg	-475
▁bet	-476
▁imp	-477
▁party	-478
▁three	-479
▁cons	-480
ister	-481
▁tu	-482
▁ass	-483
▁monday	-484
▁says	-485
urs	-486
▁national	-487
▁rec	-488
ked	-489
▁air	-490
▁news	-491
ese	-492
▁sur	-493
▁lo	-494
uring	-495
vers	-496
ected	-497
▁tuesday	-498
▁military	-499
▁kn	-500
▁plan	-501
ause	-502
▁par	-503
ons	-504
▁cent	-505
meric	-506
▁americ	-507
ory	-508
▁just	-509
▁intern	-510
▁wed	-511
▁states	-512
ings	-513
▁may	-514
▁reg	-515
▁ter	-516
ath	-517
able	-518
▁ban	-519
fore	-520
ital	-521
ult	-522
ach	-523
▁down	-524
▁group	-525
▁aut	-526
ft	-527
ublic	-528
▁obama	-529
▁old	-530
▁sen	-531
▁him	-532
istan	-533
▁minister	-534
▁attack	-535
▁end	-536
▁fore	-537
▁spok	-538
▁win	-539
▁what	-540
▁supp	-541
▁wedn	-542
▁wednesday	-543
apan	-544
▁japan	-545
ased	-546
▁before	-547
land	-548
▁most	-549
▁dep	-550
▁rem	-551
▁since	-552
▁ann	-553
ah	-554
ouse	-555
▁rel	-556
leg	-557
▁against	-558
▁sunday	-559
▁million	-560
▁econ	-561
▁show	-562
uclear	-563
▁econom	-564
▁like	-565
▁now	-566
ious	-567
▁back	-568
▁cap	-569
rat	-570
ency	-571
▁any	-572
▁law	-573
▁how	-574
ket	-575
ents	-576
▁ac	-577
▁china	-578
med	-579
▁bush	-580
▁nuclear	-581
▁gen	-582
▁mem	-583
du	-584
ix	-585
▁ph	-586
▁where	-587
rop	-588
▁des	-589
▁invest	-590
▁em	-591
row	-592
ced	-593
▁near	-594
app	-595
▁prov	-596
ists	-597
▁killed	-598
uss	-599
▁po	-600
▁med	-601
king	-602
way	-603
▁add	-604
▁prot	-605
▁secur	-606
▁during	-607
▁bro	-608
vel	-609
▁city	-610
▁because	-611
▁str	-612
aking	-613
▁spokes	-614
▁get	-615
▁made	-616
ursday	-617
▁thursday	-618
▁former	-619
ton	-620
▁bu	-621
gan	-622
▁ap	-623
led	-624
hn	-625
ame	-626
rest	-627
▁reported	-628
▁security	-629
az	-630
▁while	-631
▁only	-632
▁bar	-633
air	-634
ween	-635
▁ins	-636
other	-637
▁thr	-638
▁democ	-639
▁four	-640
▁between	-641
ered	-642
▁tur	-643
ating	-644
▁cour	-645
orn	-646
ants	-647
▁ret	-648
▁house	-649
gr	-650
▁high	-651
▁being	-652
▁bel	-653
▁def	-654
▁inf	-655
▁found	-656
▁z	-657
▁ma	-658
ution	-659
▁my	-660
oss	-661
▁compan	-662
eral	-663
▁sm	-664
▁brit	-665
▁gu	-666
▁col	-667
▁mus	-668
▁meet	-669
anc	-670
▁many	-671
ood	-672
rent	-673
▁stud	-674
und	-675
▁wom	-676
▁hel	-677
▁through	-678
▁camp	-679
ai	-680
▁vis	-681
▁miss	-682
▁tri	-683
hor	-684
▁conf	-685
▁set	-686
▁rele	-687
les	-688
▁child	-689
▁sy	-690
ester	-691
ral	-692
▁head	-693
ops	-694
ower	-695
xt	-696
ick	-697
▁called	-698
▁eu	-699
ert	-700
▁fam	-701
▁long	-702
▁author	-703
ments	-704
ret	-705
▁including	-706
▁play	-707
▁ref	-708
ared	-709
omb	-710
▁foreign	-711
▁ve	-712
ward	-713
▁press	-714
▁won	-715
▁did	-716
▁our	-717
duct	-718
ling	-719
▁international	-720
ork	-721
als	-722
ife	-723
▁run	-724
▁help	-725
▁opp	-726
▁vi	-727
ision	-728
ss	-729
ug	-730
ily	-731
ung	-732
▁tro	-733
olog	-734
▁six	-735
ands	-736
▁disc	-737
▁polit	-738
ange	-739
min	-740
imes	-741
▁home	-742
▁reports	-743
oul	-744
▁che	-745
▁democrat	-746
ble	-747
ric	-748
▁second	-749
ms	-750
bers	-751
ise	-752
me	-753
▁spokesman	-754
▁sch	-755
▁see	-756
▁eff	-757
▁iss	-758
▁days	-759
▁take	-760
▁statement	-761
▁sl	-762
ful	-763
▁conc	-764
▁eng	-765
▁next	-766
▁resp	-767
▁talks	-768
ual	-769
▁way	-770
ives	-771
▁public	-772
ting	-773
ized	-774
▁five	-775
▁announ	-776
▁num	-777
▁those	-778
▁death	-779
▁still	-780
ind	-781
rael	-782
▁israel	-783
ying	-784
atur	-785
ief	-786
▁bot	-787
▁serv	-788
▁court	-789
io	-790
▁even	-791
ures	-792
▁spe	-793
▁loc	-794
▁sus	-795
▁troops	-796
▁start	-797
sel	-798
▁pak	-799
▁open	-800
▁investig	-801
▁make	-802
▁need	-803
▁det	-804
hern	-805
ross	-806
▁prime	-807
▁seoul	-808
iew	-809
▁ra	-810
▁maj	-811
ink	-812
ics	-813
ries	-814
ivers	-815
▁least	-816
▁top	-817
ecut	-818
▁pakistan	-819
▁terr	-820
ool	-821
▁ke	-822
▁sign	-823
▁around	-824
▁afgh	-825
istr	-826
▁american	-827
att	-828
osed	-829
istry	-830
ven	-831
gram	-832
ices	-833
▁recent	-834
▁another	-835
▁vot	-836
iday	-837
▁hour	-838
▁susp	-839
▁contin	-840
▁program	-841
ady	-842
▁pal	-843
▁want	-844
▁cor	-845
ollow	-846
▁dire	-847
▁afghan	-848
▁market	-849
▁hum	-850
ible	-851
▁such	-852
oci	-853
▁follow	-854
▁ministry	-855
▁trans	-856
ages	-857
▁then	-858
ather	-859
▁clint	-860
▁direct	-861
▁pers	-862
▁oper	-863
▁viol	-864
ash	-865
▁iran	-866
per	-867
alth	-868
▁major	-869
▁put	-870
▁visit	-871
▁commun	-872
▁vict	-873
▁contro	-874
ior	-875
▁clinton	-876
▁washing	-877
ained	-878
▁leader	-879
▁every	-880
ody	-881
▁spec	-882
▁washington	-883
ee	-884
ged	-885
▁big	-886
▁russ	-887
▁bomb	-888
▁fil	-889
▁mor	-890
uch	-891
ians	-892
▁office	-893
ute	-894
▁should	-895
osp	-896
▁company	-897
osition	-898
▁dr	-899
▁cur	-900
▁retur	-901
▁secret	-902
te	-903
▁support	-904
▁pa	-905
▁belie	-906
▁times	-907
▁saying	-908
▁agency	-909
ger	-910
▁expected	-911
ense	-912
ern	-913
▁presidential	-914
oot	-915
▁ed	-916
ights	-917
▁fire	-918
▁don	-919
▁look	-920
▁pass	-921
▁dead	-922
▁well	-923
▁forces	-924
ought	-925
au	-926
▁chief	-927
▁nation	-928
aim	-929
ative	-930
▁inst	-931
ient	-932
▁members	-933
ular	-934
ism	-935
ving	-936
▁ext	-937
▁cond	-938
▁very	-939
▁power	-940
rope	-941
hip	-942
aign	-943
ility	-944
▁europe	-945
atch	-946
port	-947
▁children	-948
▁campaign	-949
▁test	-950
son	-951
▁sub	-952
▁sold	-953
ph	-954
ale	-955
▁billion	-956
ird	-957
▁ent	-958
▁far	-959
▁good	-960
feren	-961
▁bank	-962
▁main	-963
▁york	-964
amp	-965
▁both	-966
▁pop	-967
▁earli	-968
▁leg	-969
▁sever	-970
▁political	-971
▁school	-972
ner	-973
▁est	-974
hes	-975
▁ge	-976
arch	-977
▁died	-978
aw	-979
▁mcc	-980
▁coun	-981
▁early	-982
▁leaders	-983
ember	-984
▁satur	-985
▁authorities	-986
▁john	-987
▁arrest	-988
▁deal	-989
ull	-990
▁rest	-991
▁british	-992
▁several	-993
used	-994
aster	-995
▁saturday	-996
rib	-997
▁know	-998
▁earlier	-999
▁wr	-1000
ament	-1001
ock	-1002
▁pri	-1003
▁sw	-1004
▁incre	-1005
▁hop	-1006
▁white	-1007
▁friday	-1008
▁election	-1009
ier	-1010
▁ce	-1011
gin	-1012
▁art	-1013
▁hal	-1014
▁months	-1015
▁tak	-1016
gg	-1017
▁number	-1018
ured	-1019
▁crit	-1020
ific	-1021
▁kim	-1022
▁countries	-1023
ark	-1024
ene	-1025
▁move	-1026
▁chinese	-1027
▁bur	-1028
gress	-1029
▁women	-1030
▁cre	-1031
▁meeting	-1032
▁iraqi	-1033
▁arm	-1034
▁claim	-1035
▁left	-1036
▁democratic	-1037
ator	-1038
▁team	-1039
▁health	-1040
▁inj	-1041
▁sent	-1042
▁going	-1043
▁capital	-1044
reed	-1045
ines	-1046
gy	-1047
▁fed	-1048
ty	-1049
▁came	-1050
▁among	-1051
▁neg	-1052
▁own	-1053
▁rul	-1054
▁terror	-1055
ison	-1056
line	-1057
▁took	-1058
▁poss	-1059
▁night	-1060
velop	-1061
▁build	-1062
▁pros	-1063
▁family	-1064
▁dif	-1065
artment	-1066
ued	-1067
▁associ	-1068
▁cal	-1069
▁economic	-1070
▁aff	-1071
▁hosp	-1072
▁general	-1073
iness	-1074
▁tour	-1075
orts	-1076
up	-1077
▁organ	-1078
▁person	-1079
▁expl	-1080
▁prev	-1081
orters	-1082
▁hospital	-1083
▁har	-1084
▁used	-1085
▁later	-1086
▁univers	-1087
▁men	-1088
▁much	-1089
▁lee	-1090
ised	-1091
ided	-1092
▁mid	-1093
▁host	-1094
ij	-1095
▁ste	-1096
▁rese	-1097
▁human	-1098
ues	-1099
▁cand	-1100
▁develop	-1101
ves	-1102
ony	-1103
▁sum	-1104
▁peace	-1105
ky	-1106
ched	-1107
▁charg	-1108
▁life	-1109
▁threat	-1110
▁ago	-1111
▁bag	-1112
▁yester	-1113
▁yesterday	-1114
ax	-1115
loy	-1116
▁gre	-1117
▁ant	-1118
▁alleg	-1119
its	-1120
stem	-1121
▁prom	-1122
▁secretary	-1123
ames	-1124
▁adv	-1125
▁tele	-1126
ins	-1127
▁char	-1128
ened	-1129
▁pen	-1130
ones	-1131
▁civ	-1132
▁allow	-1133
▁aust	-1134
▁announced	-1135
ains	-1136
ont	-1137
▁fac	-1138
▁think	-1139
uel	-1140
▁sim	-1141
▁record	-1142
▁hy	-1143
▁free	-1144
▁star	-1145
▁admin	-1146
▁system	-1147
ired	-1148
ys	-1149
ets	-1150
▁site	-1151
▁post	-1152
bal	-1153
▁grow	-1154
▁held	-1155
▁stre	-1156
▁hold	-1157
▁past	-1158
▁area	-1159
▁met	-1160
▁glo	-1161
▁candid	-1162
▁san	-1163
▁ger	-1164
▁same	-1165
▁region	-1166
▁committ	-1167
lam	-1168
▁poll	-1169
ted	-1170
▁den	-1171
ference	-1172
▁financ	-1173
▁business	-1174
▁q	-1175
ified	-1176
▁ur	-1177
▁oil	-1178
▁invol	-1179
side	-1180
▁tec	-1181
ending	-1182
▁right	-1183
▁use	-1184
ects	-1185
▁pat	-1186
▁const	-1187
▁unt	-1188
▁today	-1189
▁hand	-1190
▁hom	-1191
estin	-1192
ention	-1193
▁university	-1194
▁place	-1195
▁job	-1196
▁prop	-1197
▁based	-1198
ov	-1199
ruct	-1200
▁proble	-1201
icle	-1202
iers	-1203
ering	-1204
▁case	-1205
▁stri	-1206
ury	-1207
▁cut	-1208
▁economy	-1209
ness	-1210
▁third	-1211
▁opposition	-1212
aff	-1213
ize	-1214
▁hit	-1215
▁released	-1216
view	-1217
▁bre	-1218
▁red	-1219
▁these	-1220
▁department	-1221
acy	-1222
▁hill	-1223
▁agree	-1224
▁roh	-1225
▁el	-1226
▁del	-1227
hd	-1228
▁your	-1229
▁il	-1230
▁morning	-1231
▁chr	-1232
▁media	-1233
▁half	-1234
▁quest	-1235
▁financial	-1236
oti	-1237
cept	-1238
iban	-1239
▁dri	-1240
riend	-1241
▁center	-1242
▁inform	-1243
aving	-1244
▁civil	-1245
▁prof	-1246
▁few	-1247
▁until	-1248
▁negoti	-1249
▁republic	-1250
co	-1251
▁ang	-1252
▁sit	-1253
▁come	-1254
▁find	-1255
▁trave	-1256
▁fight	-1257
▁hours	-1258
ondon	-1259
▁jun	-1260
▁late	-1261
▁islam	-1262
▁fund	-1263
▁local	-1264
▁indust	-1265
▁london	-1266
▁taliban	-1267
▁whether	-1268
▁without	-1269
ns	-1270
ides	-1271
▁protest	-1272
to	-1273
cess	-1274
▁bill	-1275
▁decl	-1276
aly	-1277
iting	-1278
aring	-1279
▁youn	-1280
istration	-1281
amed	-1282
▁disp	-1283
omin	-1284
ended	-1285
▁defense	-1286
▁som	-1287
▁weap	-1288
▁attacks	-1289
▁close	-1290
▁emer	-1291
▁vide	-1292
▁water	-1293
▁requ	-1294
▁taken	-1295
ik	-1296
▁led	-1297
▁nearly	-1298
▁nations	-1299
▁jan	-1300
▁sex	-1301
▁sing	-1302
▁appro	-1303
ason	-1304
▁beij	-1305
▁step	-1306
▁beijing	-1307
mp	-1308
▁space	-1309
▁strong	-1310
▁workers	-1311
uck	-1312
ually	-1313
▁money	-1314
ever	-1315
▁afghanistan	-1316
head	-1317
ished	-1318
▁japanese	-1319
▁palestin	-1320
▁others	-1321
▁austral	-1322
▁stand	-1323
▁geor	-1324
▁plans	-1325
▁py	-1326
▁vo	-1327
▁best	-1328
▁mccain	-1329
▁organiz	-1330
▁does	-1331
aining	-1332
▁polic	-1333
▁sour	-1334
▁short	-1335
▁deb	-1336
▁ris	-1337
ready	-1338
ds	-1339
ators	-1340
▁stop	-1341
▁administration	-1342
ived	-1343
▁laun	-1344
ats	-1345
▁exper	-1346
▁product	-1347
▁trad	-1348
▁baghd	-1349
▁comple	-1350
iving	-1351
iate	-1352
▁larg	-1353
▁already	-1354
▁service	-1355
▁appe	-1356
▁town	-1357
▁german	-1358
▁baghdad	-1359
▁central	-1360
▁lar	-1361
▁land	-1362
▁mass	-1363
self	-1364
▁beh	-1365
ove	-1366
▁kid	-1367
▁along	-1368
▁keep	-1369
els	-1370
▁conv	-1371
▁happ	-1372
▁hist	-1373
ield	-1374
▁activ	-1375
▁began	-1376
▁small	-1377
▁web	-1378
▁real	-1379
pped	-1380
▁confir	-1381
▁rights	-1382
▁es	-1383
aged	-1384
▁fail	-1385
ject	-1386
▁food	-1387
▁rece	-1388
▁force	-1389
mb	-1390
ission	-1391
▁env	-1392
rench	-1393
▁level	-1394
▁er	-1395
▁dam	-1396
▁army	-1397
▁known	-1398
▁control	-1399
ints	-1400
ology	-1401
▁let	-1402
▁hol	-1403
▁miles	-1404
▁christ	-1405
raw	-1406
▁emb	-1407
▁away	-1408
▁face	-1409
▁jud	-1410
▁thous	-1411
ium	-1412
ney	-1413
augh	-1414
▁parli	-1415
▁province	-1416
ounded	-1417
▁weeks	-1418
▁prison	-1419
irl	-1420
▁sn	-1421
▁each	-1422
▁current	-1423
▁decision	-1424
▁parliament	-1425
aper	-1426
▁french	-1427
▁sal	-1428
▁return	-1429
utes	-1430
▁lab	-1431
▁vote	-1432
▁clear	-1433
▁techn	-1434
▁however	-1435
ck	-1436
▁wal	-1437
ump	-1438
▁across	-1439
by	-1440
▁vir	-1441
▁av	-1442
▁lat	-1443
ae	-1444
ined	-1445
▁film	-1446
▁eight	-1447
▁southern	-1448
▁conference	-1449
ban	-1450
ety	-1451
▁soldiers	-1452
▁gas	-1453
idence	-1454
▁ju	-1455
▁ham	-1456
▁attem	-1457
▁barack	-1458
▁release	-1459
▁young	-1460
olution	-1461
▁woman	-1462
▁discuss	-1463
ims	-1464
▁aid	-1465
mak	-1466
▁information	-1467
oo	-1468
get	-1469
▁issue	-1470
str	-1471
▁hot	-1472
gency	-1473
less	-1474
▁pay	-1475
▁asked	-1476
▁trade	-1477
▁bord	-1478
▁girl	-1479
▁violence	-1480
▁relations	-1481
cil	-1482
yang	-1483
▁east	-1484
oon	-1485
▁here	-1486
▁point	-1487
▁weapons	-1488
▁global	-1489
▁arrested	-1490
▁agreement	-1491
▁foot	-1492
▁coup	-1493
▁final	-1494
▁russia	-1495
▁militants	-1496
go	-1497
▁making	-1498
sh	-1499
▁tot	-1500
▁march	-1501
▁care	-1502
▁park	-1503
ession	-1504
▁change	-1505
▁prices	-1506
lood	-1507
▁form	-1508
▁taking	-1509
▁students	-1510
▁fact	-1511
▁demand	-1512
▁execut	-1513
▁european	-1514
▁thousands	-1515
▁largest	-1516
▁following	-1517
▁inte	-1518
erv	-1519
ploy	-1520
▁reb	-1521
avy	-1522
▁friend	-1523
▁israeli	-1524
be	-1525
▁killing	-1526
▁di	-1527
▁mal	-1528
▁body	-1529
▁key	-1530
▁arri	-1531
ically	-1532
▁northern	-1533
ina	-1534
ases	-1535
▁tax	-1536
▁cost	-1537
▁video	-1538
ongyang	-1539
▁appear	-1540
▁calif	-1541
▁seven	-1542
▁gun	-1543
▁give	-1544
▁seen	-1545
ried	-1546
▁afric	-1547
bo	-1548
▁internet	-1549
arth	-1550
▁caus	-1551
▁become	-1552
▁federal	-1553
▁fur	-1554
ience	-1555
▁black	-1556
▁ident	-1557
▁agreed	-1558
▁scient	-1559
ards	-1560
▁fall	-1561
▁import	-1562
▁californ	-1563
▁port	-1564
▁got	-1565
▁mod	-1566
▁large	-1567
▁alleged	-1568
▁desp	-1569
▁added	-1570
▁california	-1571
ars	-1572
eng	-1573
har	-1574
▁net	-1575
▁great	-1576
▁concern	-1577
ank	-1578
ham	-1579
▁britain	-1580
▁might	-1581
▁points	-1582
duc	-1583
ressed	-1584
▁telev	-1585
▁tre	-1586
▁list	-1587
▁begin	-1588
▁committee	-1589
▁pyongyang	-1590
▁hund	-1591
▁never	-1592
▁trying	-1593
▁hundred	-1594
▁targ	-1595
mediate	-1596
▁congress	-1597
▁rad	-1598
▁airport	-1599
▁prosecut	-1600
ech	-1601
▁batt	-1602
▁cris	-1603
uge	-1604
▁hig	-1605
estern	-1606
▁interview	-1607
▁article	-1608
▁elections	-1609
ially	-1610
▁ahead	-1611
▁chair	-1612
▁island	-1613
▁director	-1614
rap	-1615
▁outside	-1616
ley	-1617
▁ri	-1618
▁jour	-1619
▁working	-1620
▁immediate	-1621
ract	-1622
uary	-1623
ption	-1624
▁shar	-1625
▁despite	-1626
ergy	-1627
ittle	-1628
▁accused	-1629
rug	-1630
▁went	-1631
▁associated	-1632
hers	-1633
▁meas	-1634
ection	-1635
▁likely	-1636
ef	-1637
ored	-1638
▁super	-1639
▁partic	-1640
▁emergency	-1641
mar	-1642
▁gaz	-1643
mit	-1644
▁mean	-1645
atic	-1646
▁hard	-1647
▁less	-1648
▁perf	-1649
▁charges	-1650
▁palestinian	-1651
oy	-1652
▁must	-1653
lymp	-1654
▁fut	-1655
▁olymp	-1656
ulation	-1657
eda	-1658
lom	-1659
▁cho	-1660
▁shot	-1661
▁broad	-1662
▁little	-1663
ival	-1664
▁somet	-1665
▁coll	-1666
▁estim	-1667
▁crisis	-1668
br	-1669
▁dav	-1670
▁mos	-1671
▁earth	-1672
▁senior	-1673
▁possible	-1674
▁research	-1675
▁low	-1676
▁side	-1677
▁energy	-1678
▁investigation	-1679
▁ord	-1680
ached	-1681
▁border	-1682
ults	-1683
▁sept	-1684
▁union	-1685
▁critic	-1686
▁amb	-1687
▁road	-1688
▁france	-1689
▁groups	-1690
▁council	-1691
▁process	-1692
lish	-1693
▁chang	-1694
▁station	-1695
▁companies	-1696
▁qa	-1697
▁los	-1698
▁too	-1699
imin	-1700
▁lot	-1701
ccess	-1702
▁commission	-1703
ler	-1704
▁dip	-1705
▁priv	-1706
▁west	-1707
▁policy	-1708
▁fell	-1709
▁grand	-1710
▁january	-1711
▁interest	-1712
ew	-1713
▁believe	-1714
urch	-1715
▁bas	-1716
▁suff	-1717
▁question	-1718
▁mot	-1719
▁coast	-1720
▁newsp	-1721
itions	-1722
▁boy	-1723
▁mag	-1724
▁mat	-1725
▁val	-1726
▁corp	-1727
▁deleg	-1728
▁total	-1729
▁latest	-1730
com	-1731
▁june	-1732
▁command	-1733
che	-1734
ggest	-1735
▁game	-1736
▁suggest	-1737
▁reporters	-1738
rem	-1739
▁live	-1740
▁suic	-1741
▁qaeda	-1742
▁x	-1743
ape	-1744
▁ill	-1745
▁occ	-1746
▁within	-1747
▁tell	-1748
▁continue	-1749
▁mov	-1750
▁dest	-1751
▁july	-1752
astern	-1753
ald	-1754
ona	-1755
▁desc	-1756
▁showed	-1757
▁attempt	-1758
▁special	-1759
▁previous	-1760
pr	-1761
▁gl	-1762
▁shut	-1763
▁front	-1764
nal	-1765
▁diplom	-1766
▁toward	-1767
▁travel	-1768
▁further	-1769
▁drug	-1770
▁sk	-1771
most	-1772
▁due	-1773
ming	-1774
▁line	-1775
▁break	-1776
▁watch	-1777
▁building	-1778
▁rev	-1779
▁member	-1780
▁america	-1781
▁candidate	-1782
▁once	-1783
▁cross	-1784
ta	-1785
▁anti	-1786
▁prim	-1787
▁heart	-1788
▁treat	-1789
ann	-1790
cast	-1791
▁capt	-1792
▁name	-1793
▁carry	-1794
raft	-1795
▁dist	-1796
itution	-1797
▁minutes	-1798
▁respons	-1799
▁weekend	-1800
▁mur	-1801
▁cust	-1802
▁england	-1803
iven	-1804
ane	-1805
▁ran	-1806
▁george	-1807
▁efforts	-1808
ush	-1809
▁sea	-1810
▁ship	-1811
ertain	-1812
inc	-1813
▁success	-1814
▁gaza	-1815
▁september	-1816
ighb	-1817
▁neighb	-1818
▁round	-1819
eration	-1820
▁consid	-1821
▁mess	-1822
par	-1823
▁anim	-1824
▁lost	-1825
▁order	-1826
▁hundreds	-1827
▁television	-1828
ino	-1829
▁soc	-1830
▁doll	-1831
▁ruling	-1832
▁medical	-1833
▁suicide	-1834
▁class	-1835
▁storm	-1836
▁lawmak	-1837
▁div	-1838
idents	-1839
raf	-1840
▁equ	-1841
▁mak	-1842
▁event	-1843
▁pot	-1844
epend	-1845
▁employ	-1846
▁independ	-1847
ening	-1848
▁surve	-1849
▁sol	-1850
uation	-1851
▁using	-1852
▁russian	-1853
ways	-1854
▁rom	-1855
▁consum	-1856
▁americans	-1857
ibility	-1858
ya	-1859
▁cit	-1860
▁squ	-1861
asing	-1862
▁race	-1863
▁sched	-1864
▁study	-1865
▁explos	-1866
▁repres	-1867
▁victory	-1868
oman	-1869
icted	-1870
▁nomin	-1871
▁serious	-1872
ude	-1873
▁ky	-1874
▁hur	-1875
▁hus	-1876
▁demon	-1877
▁comput	-1878
▁future	-1879
▁series	-1880
▁resc	-1881
▁soon	-1882
▁stay	-1883
▁better	-1884
cl	-1885
na	-1886
▁term	-1887
▁deter	-1888
ril	-1889
thing	-1890
▁father	-1891
▁mother	-1892
▁target	-1893
▁full	-1894
▁confirmed	-1895
urg	-1896
uty	-1897
ague	-1898
▁nat	-1899
▁trip	-1900
▁mount	-1901
▁produc	-1902
▁street	-1903
▁industry	-1904
▁communist	-1905
oint	-1906
▁react	-1907
▁journal	-1908
▁feb	-1909
▁december	-1910
ades	-1911
▁tem	-1912
woman	-1913
▁phot	-1914
harraf	-1915
▁bring	-1916
▁musharraf	-1917
ili	-1918
xic	-1919
▁fuel	-1920
▁april	-1921
▁action	-1922
▁dev	-1923
▁cell	-1924
▁ever	-1925
▁ground	-1926
ze	-1927
▁tv	-1928
▁doct	-1929
▁almost	-1930
▁wa	-1931
aced	-1932
apped	-1933
▁view	-1934
▁aug	-1935
▁dou	-1936
▁able	-1937
▁book	-1938
▁injured	-1939
▁homes	-1940
▁wounded	-1941
▁ty	-1942
oring	-1943
▁though	-1944
▁yet	-1945
▁really	-1946
iam	-1947
mber	-1948
▁hope	-1949
▁mich	-1950
▁champ	-1951
▁inside	-1952
dle	-1953
▁oct	-1954
ada	-1955
ari	-1956
ten	-1957
▁veh	-1958
ising	-1959
▁init	-1960
▁angel	-1961
▁enough	-1962
▁having	-1963
▁describ	-1964
▁koreans	-1965
▁started	-1966
▁important	-1967
arc	-1968
ees	-1969
imb	-1970
key	-1971
▁alth	-1972
▁history	-1973
▁although	-1974
ule	-1975
ring	-1976
▁vol	-1977
▁involved	-1978
ances	-1979
▁nove	-1980
▁analy	-1981
▁david	-1982
▁november	-1983
▁asia	-1984
▁behind	-1985
▁coming	-1986
▁sources	-1987
▁chairman	-1988
iron	-1989
▁cle	-1990
▁wall	-1991
▁western	-1992
▁quar	-1993
▁result	-1994
▁season	-1995
▁republican	-1996
ani	-1997
pre	-1998
▁ken	-1999
▁roc	-2000
▁believed	-2001
▁fighting	-2002
que	-2003
▁fig	-2004
▁wife	-2005
▁given	-2006
▁accept	-2007
▁king	-2008
▁rice	-2009
▁design	-2010
▁environ	-2011
itional	-2012
▁leading	-2013
▁cred	-2014
▁dise	-2015
▁room	-2016
▁areas	-2017
▁flight	-2018
▁amid	-2019
▁exch	-2020
▁nine	-2021
▁arg	-2022
▁vill	-2023
▁private	-2024
▁comes	-2025
▁whose	-2026
yal	-2027
▁india	-2028
ruction	-2029
▁environment	-2030
ida	-2031
tle	-2032
▁labor	-2033
▁stock	-2034
▁search	-2035
▁conduct	-2036
zy	-2037
▁arab	-2038
▁rich	-2039
ferent	-2040
uled	-2041
▁ide	-2042
▁coal	-2043
▁indic	-2044
imate	-2045
▁sell	-2046
▁problems	-2047
bc	-2048
▁detail	-2049
▁organization	-2050
ole	-2051
▁ball	-2052
▁role	-2053
▁plane	-2054
▁august	-2055
▁middle	-2056
▁ben	-2057
▁hyun	-2058
▁victims	-2059
▁different	-2060
▁fear	-2061
▁son	-2062
aps	-2063
▁bad	-2064
▁base	-2065
▁newspaper	-2066
▁represent	-2067
▁doc	-2068
▁mer	-2069
▁doz	-2070
▁mill	-2071
▁insp	-2072
▁evidence	-2073
▁pet	-2074
▁comb	-2075
▁kidn	-2076
▁rate	-2077
▁surv	-2078
▁voters	-2079
umb	-2080
itted	-2081
▁wants	-2082
▁planned	-2083
ably	-2084
ging	-2085
▁distr	-2086
▁heavy	-2087
▁mic	-2088
ellig	-2089
▁infl	-2090
▁wanted	-2091
▁mark	-2092
▁shoot	-2093
▁mission	-2094
▁intellig	-2095
▁scientists	-2096
pl	-2097
▁gave	-2098
▁light	-2099
▁music	-2100
▁turned	-2101
ago	-2102
▁cat	-2103
▁paul	-2104
▁australia	-2105
ster	-2106
▁looking	-2107
▁increase	-2108
▁cab	-2109
▁dro	-2110
ruary	-2111
▁didn	-2112
▁brown	-2113
▁compet	-2114
▁problem	-2115
▁february	-2116
▁crow	-2117
▁withd	-2118
▁results	-2119
ex	-2120
oud	-2121
▁board	-2122
▁assist	-2123
ograp	-2124
▁read	-2125
▁resign	-2126
▁islamic	-2127
gest	-2128
▁wat	-2129
arent	-2130
itive	-2131
▁calls	-2132
▁illeg	-2133
▁senate	-2134
▁analyst	-2135
▁pan	-2136
▁flor	-2137
▁lawy	-2138
▁movie	-2139
▁train	-2140
▁deaths	-2141
▁spokeswoman	-2142
▁crew	-2143
▁goal	-2144
▁announce	-2145
let	-2146
off	-2147
▁age	-2148
▁sad	-2149
iding	-2150
▁pack	-2151
▁green	-2152
▁received	-2153
cer	-2154
oted	-2155
▁ver	-2156
▁asse	-2157
▁tried	-2158
▁summit	-2159
▁markets	-2160
▁appeared	-2161
▁incident	-2162
▁bid	-2163
▁feel	-2164
▁conserv	-2165
fic	-2166
wan	-2167
▁ll	-2168
▁recently	-2169
▁supporters	-2170
▁ren	-2171
▁prosecutors	-2172
bert	-2173
▁bab	-2174
▁lim	-2175
▁pub	-2176
▁negotiations	-2177
▁os	-2178
▁tib	-2179
verage	-2180
▁price	-2181
▁assemb	-2182
▁loss	-2183
esters	-2184
▁couple	-2185
▁situation	-2186
ober	-2187
▁turn	-2188
gether	-2189
▁october	-2190
▁thought	-2191
▁together	-2192
▁protesters	-2193
▁docu	-2194
▁tibet	-2195
▁scheduled	-2196
▁development	-2197
▁intelligence	-2198
ays	-2199
ify	-2200
duce	-2201
▁bri	-2202
▁mad	-2203
▁saf	-2204
▁cele	-2205
▁district	-2206
▁constitution	-2207
▁nas	-2208
▁needed	-2209
▁foc	-2210
▁separ	-2211
▁florida	-2212
▁germany	-2213
▁something	-2214
han	-2215
kyo	-2216
men	-2217
work	-2218
▁vice	-2219
▁cause	-2220
▁citiz	-2221
▁hotel	-2222
▁tokyo	-2223
aughter	-2224
▁request	-2225
▁ca	-2226
down	-2227
▁kil	-2228
atives	-2229
▁games	-2230
▁disease	-2231
ma	-2232
band	-2233
wide	-2234
▁cup	-2235
▁lin	-2236
▁services	-2237
▁adm	-2238
▁chall	-2239
▁hamas	-2240
▁caused	-2241
▁issues	-2242
▁immediately	-2243
▁mom	-2244
orney	-2245
▁leban	-2246
▁decided	-2247
▁attorney	-2248
▁technology	-2249
▁bh	-2250
▁hong	-2251
▁seem	-2252
▁simp	-2253
▁judge	-2254
▁staff	-2255
▁growth	-2256
▁online	-2257
ael	-2258
itz	-2259
▁lif	-2260
▁tit	-2261
▁clos	-2262
▁deep	-2263
▁musl	-2264
▁paris	-2265
▁eastern	-2266
▁include	-2267
▁operation	-2268
▁uk	-2269
▁moo	-2270
▁shi	-2271
▁biggest	-2272
▁getting	-2273
▁growing	-2274
▁reached	-2275
ador	-2276
▁aim	-2277
▁fat	-2278
▁quick	-2279
▁church	-2280
rew	-2281
ula	-2282
ager	-2283
▁popular	-2284
ayed	-2285
▁kar	-2286
▁beat	-2287
▁prep	-2288
▁impro	-2289
▁lower	-2290
▁claimed	-2291
▁quarter	-2292
▁coalition	-2293
ots	-2294
use	-2295
▁gold	-2296
lished	-2297
▁missing	-2298
▁pressure	-2299
▁lawmakers	-2300
▁esc	-2301
▁try	-2302
▁award	-2303
▁assembly	-2304
▁officers	-2305
▁saw	-2306
▁expect	-2307
▁apparent	-2308
lin	-2309
▁league	-2310
▁strike	-2311
▁warning	-2312
▁pakistani	-2313
▁nec	-2314
▁pos	-2315
itness	-2316
▁summer	-2317
▁exchange	-2318
stand	-2319
▁polls	-2320
▁closed	-2321
▁hillary	-2322
roy	-2323
iana	-2324
over	-2325
▁kind	-2326
▁phone	-2327
▁project	-2328
▁tex	-2329
▁deli	-2330
▁sark	-2331
▁colle	-2332
▁angeles	-2333
▁condition	-2334
▁executive	-2335
yl	-2336
ither	-2337
▁effect	-2338
▁speech	-2339
▁provide	-2340
wh	-2341
oid	-2342
ball	-2343
here	-2344
▁tens	-2345
▁joint	-2346
▁mexic	-2347
▁warned	-2348
▁officer	-2349
val	-2350
▁fav	-2351
overed	-2352
▁sarko	-2353
▁remain	-2354
▁survey	-2355
▁protests	-2356
▁educ	-2357
▁jail	-2358
▁democr	-2359
▁issued	-2360
▁charged	-2361
ni	-2362
▁id	-2363
▁repl	-2364
▁failed	-2365
▁instit	-2366
hu	-2367
▁dang	-2368
▁jobs	-2369
▁prob	-2370
▁share	-2371
▁address	-2372
▁protect	-2373
raz	-2374
▁effort	-2375
▁sarkozy	-2376
hen	-2377
igr	-2378
ode	-2379
▁wind	-2380
▁sanct	-2381
▁counter	-2382
▁rob	-2383
▁pain	-2384
▁lives	-2385
▁transf	-2386
▁hostages	-2387
ories	-2388
ential	-2389
▁match	-2390
▁speak	-2391
▁texas	-2392
▁running	-2393
ural	-2394
▁fle	-2395
▁asian	-2396
▁olympic	-2397
▁democracy	-2398
zz	-2399
▁send	-2400
▁flood	-2401
▁experts	-2402
▁respond	-2403
▁speaking	-2404
rents	-2405
▁cann	-2406
▁pred	-2407
▁opened	-2408
▁social	-2409
▁justice	-2410
den	-2411
▁je	-2412
▁story	-2413
ounding	-2414
▁colomb	-2415
▁complete	-2416
▁majority	-2417
bs	-2418
cy	-2419
▁hon	-2420
▁blast	-2421
▁doing	-2422
▁community	-2423
▁offer	-2424
▁sales	-2425
▁things	-2426
▁launched	-2427
ires	-2428
ners	-2429
▁field	-2430
▁higher	-2431
▁named	-2432
▁forced	-2433
▁turkey	-2434
▁why	-2435
▁became	-2436
▁programs	-2437
▁continued	-2438
ilar	-2439
▁eth	-2440
arian	-2441
▁bhut	-2442
▁cult	-2443
▁battle	-2444
▁dail	-2445
▁safety	-2446
▁civilians	-2447
ott	-2448
▁wild	-2449
▁county	-2450
ounds	-2451
▁embass	-2452
▁senator	-2453
▁ten	-2454
ality	-2455
▁talk	-2456
▁celebr	-2457
▁diffic	-2458
▁virgin	-2459
▁researc	-2460
▁radio	-2461
▁urged	-2462
▁disapp	-2463
▁primary	-2464
iod	-2465
▁ey	-2466
▁bir	-2467
▁tom	-2468
▁tor	-2469
ensive	-2470
▁leave	-2471
▁arrived	-2472
▁parties	-2473
▁prevent	-2474
▁concerns	-2475
▁described	-2476
▁difficult	-2477
▁residents	-2478
uted	-2479
▁tim	-2480
▁rule	-2481
▁shows	-2482
▁similar	-2483
udi	-2484
▁damage	-2485
▁himself	-2486
▁indones	-2487
▁present	-2488
▁governor	-2489
▁measures	-2490
▁delegates	-2491
▁association	-2492
bi	-2493
ana	-2494
aled	-2495
vere	-2496
▁coop	-2497
▁compl	-2498
▁daily	-2499
▁comment	-2500
▁stat	-2501
▁often	-2502
▁bhutto	-2503
▁denied	-2504
▁oh	-2505
while	-2506
▁wide	-2507
▁william	-2508
▁witness	-2509
▁carrying	-2510
▁daughter	-2511
▁cast	-2512
▁conn	-2513
▁cerem	-2514
▁period	-2515
▁estimated	-2516
▁identified	-2517
ction	-2518
ortun	-2519
▁cars	-2520
▁prem	-2521
▁message	-2522
airs	-2523
ares	-2524
▁bod	-2525
uries	-2526
▁dism	-2527
▁hous	-2528
jected	-2529
▁fired	-2530
▁river	-2531
▁access	-2532
▁credit	-2533
▁deputy	-2534
▁destroy	-2535
▁ordered	-2536
ne	-2537
ote	-2538
▁buy	-2539
▁africa	-2540
▁calling	-2541
ron	-2542
uses	-2543
▁cop	-2544
▁non	-2545
▁ple	-2546
▁kong	-2547
▁laws	-2548
▁cabin	-2549
▁store	-2550
▁husband	-2551
▁progress	-2552
▁australian	-2553
▁resolution	-2554
▁always	-2555
▁parents	-2556
▁demonstr	-2557
aces	-2558
iles	-2559
▁wel	-2560
ilies	-2561
▁chance	-2562
▁launch	-2563
▁robert	-2564
▁average	-2565
ocks	-2566
pted	-2567
▁enc	-2568
ashed	-2569
▁done	-2570
▁scre	-2571
▁cases	-2572
▁traff	-2573
▁danger	-2574
▁minute	-2575
▁missile	-2576
▁families	-2577
▁meanwhile	-2578
▁production	-2579
rugg	-2580
▁dog	-2581
▁safe	-2582
▁smok	-2583
▁reform	-2584
▁michael	-2585
▁profess	-2586
▁champions	-2587
▁population	-2588
iff	-2589
▁hun	-2590
anmar	-2591
▁rout	-2592
▁funds	-2593
▁myanmar	-2594
oming	-2595
▁legal	-2596
▁scene	-2597
▁strugg	-2598
▁illegal	-2599
▁computer	-2600
uf	-2601
ask	-2602
igin	-2603
heast	-2604
▁details	-2605
▁included	-2606
▁suspected	-2607
ania	-2608
hest	-2609
▁club	-2610
▁pict	-2611
▁royal	-2612
▁spent	-2613
▁ambass	-2614
▁brought	-2615
▁certain	-2616
▁iranian	-2617
▁citizens	-2618
▁particip	-2619
▁withdraw	-2620
uk	-2621
ata	-2622
isl	-2623
▁brief	-2624
▁engine	-2625
▁ah	-2626
▁pled	-2627
▁armed	-2628
▁camer	-2629
ecution	-2630
▁sanctions	-2631
▁candidates	-2632
▁increasing	-2633
ches	-2634
iter	-2635
▁esp	-2636
▁resum	-2637
▁embassy	-2638
▁expressed	-2639
▁aw	-2640
▁cy	-2641
▁bit	-2642
▁bene	-2643
▁freed	-2644
▁custom	-2645
▁played	-2646
▁related	-2647
▁followed	-2648
▁transport	-2649
▁risk	-2650
▁guard	-2651
▁mater	-2652
▁commer	-2653
▁living	-2654
iled	-2655
▁dow	-2656
▁fif	-2657
▁mart	-2658
▁broke	-2659
▁aftern	-2660
▁terrorist	-2661
kn	-2662
rel	-2663
▁ele	-2664
ences	-2665
▁nato	-2666
▁rise	-2667
▁carried	-2668
▁english	-2669
irc	-2670
▁abd	-2671
▁cas	-2672
▁mob	-2673
▁obs	-2674
▁mult	-2675
▁rally	-2676
▁worst	-2677
▁afternoon	-2678
ault	-2679
▁bal	-2680
▁sud	-2681
enced	-2682
▁lear	-2683
▁norm	-2684
selves	-2685
▁doesn	-2686
▁ended	-2687
▁ready	-2688
▁trial	-2689
▁fourth	-2690
▁accident	-2691
▁comments	-2692
▁contract	-2693
▁activities	-2694
ilt	-2695
▁imm	-2696
▁pun	-2697
▁means	-2698
▁track	-2699
▁kilome	-2700
▁brother	-2701
▁friends	-2702
▁streets	-2703
een	-2704
orth	-2705
read	-2706
▁ber	-2707
▁huge	-2708
▁snow	-2709
▁favor	-2710
▁refuge	-2711
▁opening	-2712
▁refused	-2713
▁democrats	-2714
▁nomination	-2715
mad	-2716
▁chic	-2717
▁crowd	-2718
▁parts	-2719
▁raised	-2720
▁allowed	-2721
▁cabinet	-2722
▁doctors	-2723
▁millions	-2724
▁researchers	-2725
ev	-2726
tt	-2727
ges	-2728
hel	-2729
▁fly	-2730
▁nor	-2731
agement	-2732
▁bodies	-2733
▁claims	-2734
▁legisl	-2735
▁leaving	-2736
▁position	-2737
▁returned	-2738
▁bud	-2739
▁fun	-2740
▁rose	-2741
engers	-2742
▁blood	-2743
▁rival	-2744
▁source	-2745
▁account	-2746
▁african	-2747
▁controvers	-2748
▁tai	-2749
▁occur	-2750
▁matter	-2751
▁rocket	-2752
▁struck	-2753
▁ambassador	-2754
▁feat	-2755
▁turk	-2756
▁advis	-2757
▁crash	-2758
▁putin	-2759
▁resol	-2760
ead	-2761
iant	-2762
lant	-2763
orce	-2764
uing	-2765
▁fem	-2766
aging	-2767
▁rain	-2768
▁broadcast	-2769
▁terrorism	-2770
▁conditions	-2771
ceed	-2772
iance	-2773
▁braz	-2774
▁circ	-2775
▁sure	-2776
▁surr	-2777
▁rescue	-2778
hood	-2779
▁mis	-2780
atory	-2781
insula	-2782
▁needs	-2783
ighters	-2784
▁origin	-2785
▁peninsula	-2786
▁love	-2787
▁poor	-2788
▁birth	-2789
▁hopes	-2790
▁sites	-2791
▁stage	-2792
ilities	-2793
▁prince	-2794
▁instead	-2795
▁material	-2796
▁passengers	-2797
rial	-2798
▁typ	-2799
▁operations	-2800
amin	-2801
▁cub	-2802
▁pul	-2803
aries	-2804
going	-2805
▁reach	-2806
▁cities	-2807
▁traffic	-2808
amb	-2809
▁gn	-2810
▁ts	-2811
▁avail	-2812
▁estab	-2813
▁mexico	-2814
▁quoted	-2815
▁forward	-2816
ara	-2817
▁pic	-2818
inois	-2819
▁sect	-2820
▁debate	-2821
▁passed	-2822
▁taiwan	-2823
▁illinois	-2824
▁published	-2825
lled	-2826
onse	-2827
▁fans	-2828
▁gener	-2829
ability	-2830
▁course	-2831
▁holding	-2832
▁trading	-2833
aped	-2834
wood	-2835
▁brazil	-2836
▁spread	-2837
▁communic	-2838
▁interior	-2839
ha	-2840
▁nom	-2841
▁pil	-2842
▁card	-2843
▁banks	-2844
▁natur	-2845
▁spending	-2846
▁announcement	-2847
iet	-2848
ift	-2849
ows	-2850
resp	-2851
▁feet	-2852
▁hands	-2853
▁liber	-2854
▁restr	-2855
▁relationship	-2856
ece	-2857
aves	-2858
▁pus	-2859
▁swe	-2860
istic	-2861
▁repe	-2862
▁temp	-2863
▁smith	-2864
▁common	-2865
▁nothing	-2866
▁available	-2867
arks	-2868
▁bul	-2869
▁eas	-2870
ograph	-2871
▁chung	-2872
▁micro	-2873
▁contest	-2874
▁network	-2875
ped	-2876
▁gnp	-2877
itten	-2878
▁draw	-2879
▁evac	-2880
▁carol	-2881
▁crack	-2882
▁index	-2883
▁saudi	-2884
▁histor	-2885
▁insurg	-2886
ding	-2887
hold	-2888
▁fel	-2889
▁pow	-2890
izing	-2891
▁ital	-2892
▁franc	-2893
▁makes	-2894
▁chicago	-2895
▁suffered	-2896
emy	-2897
itor	-2898
▁aud	-2899
▁dae	-2900
anish	-2901
pping	-2902
▁focus	-2903
▁moved	-2904
▁surpr	-2905
▁murder	-2906
▁currently	-2907
ria	-2908
owed	-2909
▁und	-2910
▁aimed	-2911
▁concer	-2912
▁rising	-2913
ification	-2914
ateg	-2915
idge	-2916
▁pur	-2917
▁sle	-2918
▁vac	-2919
▁astr	-2920
itting	-2921
▁influ	-2922
▁annual	-2923
▁charge	-2924
▁longer	-2925
▁nomine	-2926
▁worked	-2927
▁contact	-2928
▁schools	-2929
▁ceremony	-2930
▁education	-2931
▁treatment	-2932
▁investment	-2933
▁dom	-2934
▁hen	-2935
▁unf	-2936
licop	-2937
▁soci	-2938
▁teen	-2939
▁trou	-2940
▁crimin	-2941
▁signed	-2942
▁helicop	-2943
▁winning	-2944
▁declared	-2945
oned	-2946
▁pac	-2947
▁data	-2948
▁sens	-2949
▁teac	-2950
▁worth	-2951
ization	-2952
▁cannot	-2953
▁either	-2954
▁rebels	-2955
▁square	-2956
▁decades	-2957
▁virginia	-2958
▁themselves	-2959
atell	-2960
ients	-2961
▁born	-2962
▁harry	-2963
▁steps	-2964
▁lawyer	-2965
▁letter	-2966
▁muslim	-2967
▁affairs	-2968
▁analysts	-2969
▁movement	-2970
▁response	-2971
▁signific	-2972
ugh	-2973
▁ol	-2974
▁mail	-2975
iation	-2976
▁cover	-2977
▁creat	-2978
▁thing	-2979
▁helped	-2980
▁satell	-2981
▁players	-2982
▁neighbor	-2983
▁increased	-2984
▁institute	-2985
▁diplomatic	-2986
▁bak	-2987
▁ice	-2988
icles	-2989
▁lack	-2990
inking	-2991
▁above	-2992
ruption	-2993
▁moment	-2994
▁professor	-2995
▁discovered	-2996
▁particular	-2997
ike	-2998
fully	-2999
overy	-3000
▁adding	-3001
▁atlant	-3002
▁century	-3003
▁weather	-3004
▁injuries	-3005
▁personal	-3006
▁probably	-3007
▁employees	-3008
▁dub	-3009
▁bang	-3010
▁appoint	-3011
▁remains	-3012
▁consider	-3013
▁commander	-3014
▁kilometers	-3015
hol	-3016
ker	-3017
▁moon	-3018
▁toll	-3019
▁italy	-3020
▁challen	-3021
▁collect	-3022
▁construction	-3023
▁asp	-3024
▁blo	-3025
aling	-3026
ocked	-3027
▁date	-3028
ological	-3029
▁questions	-3030
▁investigators	-3031
▁flo	-3032
▁fill	-3033
▁female	-3034
▁highest	-3035
▁quickly	-3036
▁destroyed	-3037
▁dar	-3038
▁opt	-3039
itude	-3040
▁nasa	-3041
▁rare	-3042
▁spot	-3043
▁weak	-3044
▁plant	-3045
▁dozens	-3046
▁indian	-3047
▁overse	-3048
▁playing	-3049
▁understand	-3050
aur	-3051
hua	-3052
▁ho	-3053
cing	-3054
▁row	-3055
▁xin	-3056
▁fort	-3057
apping	-3058
▁spain	-3059
▁create	-3060
▁deploy	-3061
▁dollars	-3062
▁earthqu	-3063
▁italian	-3064
▁natural	-3065
▁industrial	-3066
▁independent	-3067
uit	-3068
▁displ	-3069
▁jones	-3070
▁giving	-3071
▁manager	-3072
▁turkish	-3073
▁threatened	-3074
avez	-3075
gypt	-3076
▁exc	-3077
▁sil	-3078
house	-3079
preme	-3080
▁vers	-3081
idered	-3082
▁chavez	-3083
▁dollar	-3084
▁reason	-3085
▁supreme	-3086
▁anything	-3087
▁shooting	-3088
gu	-3089
nel	-3090
erve	-3091
▁abb	-3092
▁ful	-3093
▁unc	-3094
▁arch	-3095
▁drop	-3096
▁farm	-3097
▁egypt	-3098
▁espec	-3099
▁numbers	-3100
▁seeking	-3101
▁approved	-3102
▁detained	-3103
▁transfer	-3104
▁especially	-3105
▁everything	-3106
▁bi	-3107
▁ii	-3108
▁jer	-3109
▁nic	-3110
ional	-3111
▁mosc	-3112
▁paid	-3113
▁phys	-3114
▁maint	-3115
▁mayor	-3116
▁stren	-3117
▁necess	-3118
▁changes	-3119
▁vehicle	-3120
▁allegedly	-3121
▁considered	-3122
af	-3123
arm	-3124
omp	-3125
aded	-3126
▁die	-3127
▁song	-3128
isters	-3129
▁marri	-3130
▁speed	-3131
▁nearby	-3132
▁hearing	-3133
▁richard	-3134
of	-3135
nam	-3136
olf	-3137
▁kh	-3138
enez	-3139
room	-3140
west	-3141
▁mac	-3142
aught	-3143
craft	-3144
jects	-3145
▁defe	-3146
▁idea	-3147
▁jack	-3148
▁regul	-3149
▁barrel	-3150
▁commit	-3151
▁corpor	-3152
▁levels	-3153
▁moscow	-3154
▁review	-3155
▁evening	-3156
▁politic	-3157
▁opportun	-3158
▁allegations	-3159
outh	-3160
▁posted	-3161
▁single	-3162
▁streng	-3163
▁massive	-3164
▁additional	-3165
▁fre	-3166
▁code	-3167
▁kept	-3168
▁range	-3169
▁sides	-3170
▁condem	-3171
▁sexual	-3172
▁mountain	-3173
yan	-3174
come	-3175
▁abs	-3176
▁euro	-3177
▁lang	-3178
▁georg	-3179
▁wrong	-3180
▁perfor	-3181
▁dropped	-3182
▁session	-3183
▁carolina	-3184
▁apparently	-3185
▁prosecution	-3186
akes	-3187
▁kur	-3188
onaut	-3189
▁blue	-3190
▁doub	-3191
▁join	-3192
▁shin	-3193
▁autom	-3194
▁check	-3195
▁title	-3196
▁happened	-3197
▁attention	-3198
▁convicted	-3199
▁cro	-3200
▁bird	-3201
▁stra	-3202
▁backed	-3203
▁driving	-3204
▁remarks	-3205
▁investors	-3206
▁potential	-3207
▁criticized	-3208
▁responsible	-3209
▁significant	-3210
hi	-3211
ylv	-3212
body	-3213
mine	-3214
▁dig	-3215
ively	-3216
▁reve	-3217
▁shiite	-3218
▁aircraft	-3219
▁critical	-3220
▁training	-3221
quar	-3222
▁las	-3223
nsylv	-3224
▁jump	-3225
▁muse	-3226
▁extra	-3227
▁pennsylv	-3228
▁responsibility	-3229
▁sel	-3230
lines	-3231
▁firm	-3232
▁propos	-3233
▁college	-3234
▁visitors	-3235
pts	-3236
▁rod	-3237
apers	-3238
hered	-3239
▁purs	-3240
▁soft	-3241
▁cance	-3242
▁costs	-3243
▁sharp	-3244
▁venez	-3245
▁cancer	-3246
▁xinhua	-3247
▁society	-3248
▁admitted	-3249
▁venezuel	-3250
▁environmental	-3251
▁parliamentary	-3252
ken	-3253
▁ow	-3254
ream	-3255
▁ale	-3256
▁ron	-3257
▁uri	-3258
isted	-3259
phone	-3260
▁whom	-3261
▁crime	-3262
▁heard	-3263
ination	-3264
▁attend	-3265
▁animals	-3266
▁alliance	-3267
▁products	-3268
▁authority	-3269
▁buildings	-3270
ado	-3271
agon	-3272
ises	-3273
▁haw	-3274
ufact	-3275
▁arms	-3276
▁ohio	-3277
▁boost	-3278
▁subst	-3279
▁manufact	-3280
▁planning	-3281
▁indonesia	-3282
▁prisoners	-3283
▁conservative	-3284
▁independence	-3285
▁pennsylvania	-3286
kes	-3287
gery	-3288
▁bin	-3289
▁seat	-3290
ailand	-3291
▁museum	-3292
▁territ	-3293
▁consumer	-3294
▁thailand	-3295
▁performan	-3296
omm	-3297
▁ep	-3298
iger	-3299
▁raid	-3300
▁shop	-3301
▁medic	-3302
▁offered	-3303
▁student	-3304
▁suspects	-3305
▁management	-3306
back	-3307
▁ans	-3308
▁shr	-3309
▁jose	-3310
▁rail	-3311
▁benef	-3312
▁scand	-3313
▁pacific	-3314
▁respect	-3315
▁someone	-3316
▁written	-3317
▁electric	-3318
▁committed	-3319
▁worldwide	-3320
▁ps	-3321
orter	-3322
▁size	-3323
lement	-3324
▁motor	-3325
▁serve	-3326
▁combat	-3327
▁defend	-3328
▁severe	-3329
▁holiday	-3330
▁attacked	-3331
▁rejected	-3332
▁separate	-3333
▁beginning	-3334
▁previously	-3335
rs	-3336
ware	-3337
▁lib	-3338
alled	-3339
where	-3340
▁baby	-3341
▁abbas	-3342
▁domin	-3343
▁recon	-3344
▁tests	-3345
▁works	-3346
▁suspect	-3347
▁leadership	-3348
ao	-3349
bed	-3350
resh	-3351
▁hall	-3352
▁rules	-3353
▁seats	-3354
▁forest	-3355
▁regard	-3356
▁custody	-3357
▁nominee	-3358
▁shortly	-3359
▁includes	-3360
▁vehicles	-3361
ibly	-3362
ston	-3363
estic	-3364
▁ties	-3365
▁ruled	-3366
▁rather	-3367
▁commerc	-3368
▁regional	-3369
▁remained	-3370
▁insurgents	-3371
ezz	-3372
▁lu	-3373
ider	-3374
rote	-3375
▁gar	-3376
▁bail	-3377
▁phil	-3378
▁rock	-3379
▁avoid	-3380
▁langu	-3381
▁penal	-3382
▁allies	-3383
▁figure	-3384
▁herald	-3385
▁reactor	-3386
▁actually	-3387
▁proposed	-3388
▁criticism	-3389
pper	-3390
▁opin	-3391
▁contr	-3392
▁signs	-3393
▁occurred	-3394
▁olympics	-3395
▁explosion	-3396
▁corruption	-3397
▁earthquake	-3398
aks	-3399
ran	-3400
soft	-3401
▁bol	-3402
▁adop	-3403
▁mort	-3404
▁sale	-3405
▁giant	-3406
▁takes	-3407
▁votes	-3408
▁georgia	-3409
▁everyone	-3410
▁repeated	-3411
▁microsoft	-3412
▁satellite	-3413
▁mel	-3414
asion	-3415
▁zone	-3416
▁refer	-3417
▁relig	-3418
▁apolog	-3419
▁linked	-3420
▁moving	-3421
▁shares	-3422
▁civilian	-3423
▁starting	-3424
wor	-3425
▁mc	-3426
▁ul	-3427
know	-3428
▁han	-3429
▁sky	-3430
uters	-3431
lywood	-3432
▁paper	-3433
▁pract	-3434
▁treas	-3435
▁wrote	-3436
▁charac	-3437
▁events	-3438
▁elected	-3439
▁figures	-3440
▁improve	-3441
▁inspect	-3442
▁conducted	-3443
▁documents	-3444
rid	-3445
▁pi	-3446
▁bay	-3447
▁jew	-3448
▁sty	-3449
ently	-3450
field	-3451
oting	-3452
▁word	-3453
▁fifth	-3454
▁minor	-3455
respond	-3456
▁climate	-3457
▁correspond	-3458
wer	-3459
▁hu	-3460
chie	-3461
▁lad	-3462
▁mas	-3463
icket	-3464
vered	-3465
▁slow	-3466
▁built	-3467
▁myung	-3468
knowled	-3469
▁impact	-3470
▁attract	-3471
▁complex	-3472
▁science	-3473
▁acknowled	-3474
▁commercial	-3475
abe	-3476
ray	-3477
ych	-3478
▁fer	-3479
▁fest	-3480
▁actor	-3481
▁evacu	-3482
▁fresh	-3483
▁anyone	-3484
▁determin	-3485
eth	-3486
ris	-3487
▁fo	-3488
rain	-3489
force	-3490
using	-3491
▁fair	-3492
▁remo	-3493
▁yong	-3494
▁envoy	-3495
▁faces	-3496
▁girls	-3497
▁james	-3498
▁marine	-3499
▁bombing	-3500
▁spanish	-3501
▁surgery	-3502
▁addition	-3503
▁football	-3504
car	-3505
ivid	-3506
ping	-3507
▁ali	-3508
▁deg	-3509
▁guil	-3510
▁trig	-3511
▁wood	-3512
▁bombs	-3513
▁brain	-3514
▁prize	-3515
▁rates	-3516
▁perform	-3517
▁showing	-3518
ota	-3519
unt	-3520
vin	-3521
▁fish	-3522
▁jung	-3523
▁sant	-3524
▁blamed	-3525
▁guilty	-3526
▁itself	-3527
▁player	-3528
ties	-3529
▁flu	-3530
▁cash	-3531
▁ahmad	-3532
▁clean	-3533
▁spoke	-3534
▁career	-3535
▁created	-3536
▁flights	-3537
▁restaur	-3538
▁electron	-3539
▁tourists	-3540
▁fa	-3541
berg	-3542
▁alex	-3543
encies	-3544
▁fears	-3545
▁terms	-3546
▁encour	-3547
▁reduce	-3548
▁marriage	-3549
ogn	-3550
▁et	-3551
▁acad	-3552
▁jong	-3553
iction	-3554
▁behav	-3555
▁sleep	-3556
▁animal	-3557
▁citing	-3558
▁mosque	-3559
▁regime	-3560
▁confirm	-3561
▁suggested	-3562
▁au	-3563
abwe	-3564
▁fro	-3565
▁gat	-3566
ullah	-3567
▁hurt	-3568
▁self	-3569
▁zimb	-3570
▁gates	-3571
▁moham	-3572
▁queen	-3573
▁mobile	-3574
▁normal	-3575
▁recogn	-3576
▁colombia	-3577
▁domestic	-3578
▁peaceful	-3579
▁policies	-3580
▁provided	-3581
▁zimbabwe	-3582
▁concerned	-3583
▁ministers	-3584
▁operating	-3585
sp	-3586
ites	-3587
rators	-3588
▁filed	-3589
▁mostly	-3590
▁criminal	-3591
▁astronaut	-3592
ga	-3593
hib	-3594
ica	-3595
▁ha	-3596
anda	-3597
▁ens	-3598
▁names	-3599
▁owner	-3600
▁shown	-3601
▁winds	-3602
▁screen	-3603
▁supply	-3604
▁contrib	-3605
▁dispute	-3606
▁finance	-3607
▁measure	-3608
▁compared	-3609
▁patients	-3610
▁necessary	-3611
lies	-3612
rupt	-3613
usal	-3614
▁mah	-3615
▁rap	-3616
▁gall	-3617
▁push	-3618
▁panel	-3619
▁words	-3620
▁damaged	-3621
▁francis	-3622
▁individ	-3623
▁lebanon	-3624
▁replace	-3625
▁lebanese	-3626
▁terrorists	-3627
ba	-3628
erc	-3629
mert	-3630
▁ask	-3631
▁ton	-3632
▁gang	-3633
▁mary	-3634
▁stem	-3635
▁ways	-3636
▁intro	-3637
▁assass	-3638
▁stocks	-3639
▁stopped	-3640
▁promised	-3641
▁dangerous	-3642
▁neighborhood	-3643
▁palestinians	-3644
ett	-3645
uan	-3646
▁bbc	-3647
▁dut	-3648
▁ram	-3649
ature	-3650
erson	-3651
▁heav	-3652
▁ilbo	-3653
▁kids	-3654
▁kurd	-3655
▁magn	-3656
▁sher	-3657
▁achie	-3658
▁confl	-3659
▁drugs	-3660
▁magaz	-3661
▁bridge	-3662
▁voting	-3663
▁shuttle	-3664
▁affected	-3665
▁sentence	-3666
▁remaining	-3667
▁suspended	-3668
bel	-3669
ears	-3670
keep	-3671
onym	-3672
sein	-3673
▁lay	-3674
▁ven	-3675
▁fast	-3676
▁mach	-3677
▁shel	-3678
friend	-3679
▁lines	-3680
▁princ	-3681
▁sought	-3682
▁suspic	-3683
▁wearing	-3684
▁militant	-3685
▁positive	-3686
▁powerful	-3687
▁hollywood	-3688
▁involving	-3689
ips	-3690
uff	-3691
▁ki	-3692
mark	-3693
▁box	-3694
▁cru	-3695
▁fbi	-3696
▁gul	-3697
▁sho	-3698
ounts	-3699
▁else	-3700
▁seed	-3701
ulated	-3702
▁insur	-3703
▁abduct	-3704
▁assault	-3705
▁protection	-3706
bre	-3707
▁da	-3708
▁gh	-3709
▁inn	-3710
▁pir	-3711
▁cold	-3712
▁felt	-3713
▁flag	-3714
▁navy	-3715
▁voted	-3716
▁amount	-3717
▁joined	-3718
▁failure	-3719
▁ongoing	-3720
▁village	-3721
▁designed	-3722
▁document	-3723
▁forecast	-3724
▁territory	-3725
▁opportunity	-3726
▁performance	-3727
dog	-3728
itch	-3729
road	-3730
▁god	-3731
▁hav	-3732
▁yah	-3733
▁yang	-3734
coming	-3735
utions	-3736
▁joins	-3737
▁reduc	-3738
▁truck	-3739
ression	-3740
▁appeal	-3741
▁collaps	-3742
▁conflict	-3743
▁gathered	-3744
▁headquar	-3745
▁meetings	-3746
▁overseas	-3747
▁activists	-3748
▁confidence	-3749
▁journalists	-3750
dam	-3751
mas	-3752
ovo	-3753
▁abe	-3754
ander	-3755
ordin	-3756
▁hear	-3757
▁prec	-3758
▁seek	-3759
▁surf	-3760
▁color	-3761
▁psych	-3762
▁raise	-3763
▁caught	-3764
▁malays	-3765
▁placed	-3766
▁seized	-3767
▁waters	-3768
▁dismiss	-3769
▁annivers	-3770
▁cooperation	-3771
my	-3772
ttp	-3773
vert	-3774
▁oce	-3775
agers	-3776
▁http	-3777
▁wasn	-3778
▁wing	-3779
▁apple	-3780
▁beach	-3781
▁crude	-3782
▁memor	-3783
▁images	-3784
▁winter	-3785
▁helping	-3786
▁opinion	-3787
▁considering	-3788
▁possibility	-3789
de	-3790
ps	-3791
reg	-3792
▁km	-3793
eing	-3794
olic	-3795
omic	-3796
iling	-3797
▁drive	-3798
▁enter	-3799
▁olmert	-3800
▁initial	-3801
▁straight	-3802
▁experience	-3803
▁anniversary	-3804
▁headquarters	-3805
▁investigating	-3806
▁ze	-3807
▁isn	-3808
▁van	-3809
▁ves	-3810
apore	-3811
arily	-3812
▁serb	-3813
▁below	-3814
▁peter	-3815
▁quake	-3816
▁trail	-3817
▁voice	-3818
▁pulled	-3819
▁critics	-3820
▁propert	-3821
▁customers	-3822
▁singapore	-3823
▁telephone	-3824
▁reportedly	-3825
lus	-3826
nes	-3827
▁ko	-3828
▁ok	-3829
burg	-3830
igan	-3831
▁anc	-3832
▁alco	-3833
▁lone	-3834
▁dozen	-3835
▁hurric	-3836
▁immigr	-3837
▁looked	-3838
▁violent	-3839
▁sentenced	-3840
▁throughout	-3841
cri	-3842
iro	-3843
ancy	-3844
ille	-3845
erate	-3846
light	-3847
orrow	-3848
▁clin	-3849
▁item	-3850
▁qual	-3851
▁homel	-3852
▁laden	-3853
▁veter	-3854
▁yahoo	-3855
▁entire	-3856
▁resume	-3857
▁pledged	-3858
▁regular	-3859
▁reuters	-3860
▁christop	-3861
het	-3862
ror	-3863
vez	-3864
ales	-3865
ends	-3866
▁mug	-3867
▁bear	-3868
▁goes	-3869
▁page	-3870
▁blair	-3871
▁block	-3872
▁chann	-3873
▁lands	-3874
▁famous	-3875
▁madrid	-3876
▁appears	-3877
▁conclud	-3878
▁involve	-3879
▁directly	-3880
▁language	-3881
▁christmas	-3882
▁establish	-3883
▁controversial	-3884
iki	-3885
▁ly	-3886
▁ut	-3887
▁jet	-3888
iment	-3889
ordon	-3890
rency	-3891
▁auto	-3892
▁gone	-3893
▁spir	-3894
▁happy	-3895
▁defeat	-3896
▁recomm	-3897
▁vessel	-3898
▁winner	-3899
▁freedom	-3900
▁largely	-3901
▁package	-3902
▁princip	-3903
▁willing	-3904
▁complain	-3905
▁declined	-3906
▁disaster	-3907
▁produced	-3908
▁developing	-3909
▁facilities	-3910
▁christopher	-3911
gun	-3912
abil	-3913
abul	-3914
▁alb	-3915
▁hair	-3916
▁pent	-3917
▁tech	-3918
▁alone	-3919
▁choice	-3920
▁ticket	-3921
▁alcohol	-3922
▁fighters	-3923
▁kidnapped	-3924
ams	-3925
apse	-3926
▁fra	-3927
▁rat	-3928
▁var	-3929
▁bott	-3930
▁dream	-3931
▁prior	-3932
▁trust	-3933
▁twice	-3934
▁meters	-3935
▁selling	-3936
▁soldier	-3937
▁assistant	-3938
▁hurricane	-3939
▁surrounding	-3940
gn	-3941
ery	-3942
sen	-3943
▁ic	-3944
▁gro	-3945
▁kos	-3946
▁grad	-3947
▁true	-3948
aching	-3949
▁aband	-3950
▁model	-3951
▁patro	-3952
▁sunni	-3953
▁tells	-3954
▁casual	-3955
▁double	-3956
▁ending	-3957
▁expand	-3958
▁headed	-3959
▁demands	-3960
▁distrib	-3961
▁overall	-3962
▁scandal	-3963
▁systems	-3964
▁behavior	-3965
▁deadline	-3966
▁witnesses	-3967
aki	-3968
▁ari	-3969
▁bat	-3970
▁gal	-3971
▁nar	-3972
ilipp	-3973
▁band	-3974
▁fine	-3975
▁mist	-3976
▁pick	-3977
▁burma	-3978
▁sudan	-3979
▁mugabe	-3980
▁victim	-3981
▁philipp	-3982
▁premier	-3983
▁species	-3984
▁activity	-3985
▁magazine	-3986
▁missiles	-3987
do	-3988
uj	-3989
olas	-3990
▁rang	-3991
▁downt	-3992
▁somal	-3993
▁canada	-3994
▁records	-3995
▁talking	-3996
▁bombings	-3997
▁software	-3998
▁challenge	-3999
▁traditional	-4000
▁constitutional	-4001
ko	-4002
reme	-4003
wang	-4004
▁bey	-4005
▁bil	-4006
▁gon	-4007
▁ign	-4008
▁dark	-4009
▁score	-4010
▁surge	-4011
▁tight	-4012
▁decade	-4013
▁doctor	-4014
▁actions	-4015
▁married	-4016
▁usually	-4017
▁politics	-4018
▁prepared	-4019
▁demanding	-4020
▁northeast	-4021
mon	-4022
ube	-4023
▁ba	-4024
fort	-4025
ront	-4026
▁bed	-4027
▁dial	-4028
▁door	-4029
▁mind	-4030
▁tank	-4031
▁ocean	-4032
▁purch	-4033
ologist	-4034
▁anonym	-4035
▁houses	-4036
▁demonst	-4037
▁extreme	-4038
▁hussein	-4039
▁imposed	-4040
▁pentagon	-4041
▁targeted	-4042
▁williams	-4043
▁christian	-4044
▁consumers	-4045
▁helicopter	-4046
▁lic	-4047
▁beck	-4048
▁fled	-4049
ictions	-4050
▁reflect	-4051
ano	-4052
bon	-4053
aska	-4054
▁spl	-4055
ender	-4056
▁knew	-4057
▁plot	-4058
▁frank	-4059
▁fraud	-4060
▁meant	-4061
▁rebel	-4062
▁stars	-4063
▁atomic	-4064
▁gordon	-4065
▁losses	-4066
▁weight	-4067
▁airline	-4068
▁collapse	-4069
▁proposal	-4070
▁francisco	-4071
▁recession	-4072
▁foreigners	-4073
oded	-4074
ogue	-4075
unch	-4076
asons	-4077
▁male	-4078
▁pope	-4079
▁coach	-4080
▁lived	-4081
▁owned	-4082
▁steve	-4083
▁places	-4084
▁sports	-4085
▁spring	-4086
▁surviv	-4087
▁temper	-4088
▁consult	-4089
▁deliver	-4090
▁sending	-4091
▁waiting	-4092
▁agencies	-4093
▁required	-4094
▁computers	-4095
▁controlled	-4096
▁convention	-4097
▁prosecutor	-4098
▁revolution	-4099
▁resignation	-4100
▁particularly	-4101
▁eld	-4102
▁eye	-4103
▁ult	-4104
ashes	-4105
isher	-4106
▁syria	-4107
itarian	-4108
▁beyond	-4109
▁declar	-4110
▁koreas	-4111
▁losing	-4112
▁object	-4113
▁ronald	-4114
▁select	-4115
▁hostage	-4116
▁airlines	-4117
▁presence	-4118
▁determine	-4119
rer	-4120
tern	-4121
▁din	-4122
▁mir	-4123
▁walk	-4124
ateral	-4125
▁cells	-4126
▁draft	-4127
▁heads	-4128
▁crimes	-4129
▁maliki	-4130
▁relief	-4131
heastern	-4132
▁condole	-4133
▁festival	-4134
▁pictures	-4135
▁traveling	-4136
▁governments	-4137
▁republicans	-4138
ezza	-4139
like	-4140
▁abu	-4141
▁bom	-4142
▁hil	-4143
▁nep	-4144
▁scr	-4145
▁sov	-4146
ately	-4147
wards	-4148
▁clot	-4149
▁thai	-4150
▁tony	-4151
▁abuse	-4152
▁fully	-4153
▁occup	-4154
▁oppon	-4155
itation	-4156
▁deadly	-4157
▁resort	-4158
▁secure	-4159
▁served	-4160
▁settle	-4161
▁unless	-4162
▁content	-4163
▁receive	-4164
▁setting	-4165
▁treasury	-4166
▁crackdown	-4167
▁developed	-4168
▁condoleezza	-4169
apt	-4170
gas	-4171
une	-4172
abad	-4173
ique	-4174
▁eru	-4175
▁gay	-4176
▁rus	-4177
aming	-4178
astic	-4179
▁cong	-4180
▁trib	-4181
▁unit	-4182
▁style	-4183
▁gather	-4184
▁palace	-4185
▁portug	-4186
▁punish	-4187
▁actress	-4188
▁resolve	-4189
▁serving	-4190
▁various	-4191
▁visited	-4192
▁supplies	-4193
▁implement	-4194
▁competition	-4195
▁politicians	-4196
sc	-4197
▁fix	-4198
▁gra	-4199
▁acqu	-4200
▁monit	-4201
▁kosovo	-4202
▁sharif	-4203
▁singer	-4204
▁soviet	-4205
▁wealth	-4206
▁adviser	-4207
▁finding	-4208
▁approval	-4209
▁suffering	-4210
▁demonstrators	-4211
nic	-4212
aked	-4213
illa	-4214
imum	-4215
▁kyi	-4216
▁rub	-4217
gered	-4218
▁bern	-4219
▁corn	-4220
▁inqu	-4221
▁text	-4222
ifying	-4223
▁consp	-4224
▁honor	-4225
▁obser	-4226
▁depart	-4227
▁happen	-4228
▁charles	-4229
▁quality	-4230
▁removed	-4231
▁dialogue	-4232
▁continues	-4233
▁religious	-4234
▁sometimes	-4235
▁determined	-4236
▁ku	-4237
iced	-4238
lets	-4239
rawn	-4240
▁hor	-4241
▁luc	-4242
▁teh	-4243
enger	-4244
▁boyc	-4245
▁purp	-4246
ension	-4247
▁exerc	-4248
▁teams	-4249
▁touch	-4250
▁whole	-4251
▁bomber	-4252
▁camera	-4253
▁finish	-4254
▁howard	-4255
▁widely	-4256
▁changed	-4257
▁tibetan	-4258
▁demanded	-4259
▁apartment	-4260
▁questioned	-4261
ye	-4262
ami	-4263
ein	-4264
enn	-4265
rog	-4266
▁der	-4267
▁cath	-4268
▁cuts	-4269
▁save	-4270
▁spar	-4271
▁unve	-4272
▁exist	-4273
▁kabul	-4274
▁taxes	-4275
▁users	-4276
▁affect	-4277
▁facing	-4278
▁pervez	-4279
▁academy	-4280
▁beckham	-4281
▁express	-4282
▁lawyers	-4283
▁historic	-4284
▁property	-4285
▁influence	-4286
▁declaration	-4287
fur	-4288
▁gm	-4289
ford	-4290
▁rum	-4291
▁ones	-4292
▁onto	-4293
▁prin	-4294
▁pull	-4295
▁virt	-4296
▁floor	-4297
▁image	-4298
▁argent	-4299
▁becoming	-4300
▁original	-4301
▁organizations	-4302
dom	-4303
oph	-4304
acts	-4305
azir	-4306
▁lou	-4307
▁nad	-4308
▁pra	-4309
▁mine	-4310
▁roll	-4311
▁stad	-4312
▁trop	-4313
▁alert	-4314
▁delay	-4315
▁diana	-4316
▁rapid	-4317
▁route	-4318
▁smoke	-4319
▁torch	-4320
▁troop	-4321
▁picked	-4322
▁planet	-4323
▁retail	-4324
▁ukrain	-4325
ferences	-4326
▁located	-4327
▁produce	-4328
▁accepted	-4329
▁character	-4330
▁businesses	-4331
▁enj	-4332
▁mix	-4333
▁suu	-4334
etnam	-4335
▁chem	-4336
▁mahm	-4337
▁items	-4338
▁sense	-4339
▁highly	-4340
▁pounds	-4341
▁saddam	-4342
▁tehran	-4343
▁causing	-4344
▁finally	-4345
▁kurdish	-4346
▁believes	-4347
▁michigan	-4348
▁collapsed	-4349
▁estimates	-4350
▁providing	-4351
▁struggling	-4352
▁increasingly	-4353
▁demonstrations	-4354
win	-4355
aksin	-4356
anium	-4357
▁cruc	-4358
▁hang	-4359
▁ring	-4360
enders	-4361
▁alive	-4362
▁firef	-4363
▁pregn	-4364
▁arabia	-4365
▁kenned	-4366
▁modern	-4367
▁housing	-4368
▁thaksin	-4369
▁attempts	-4370
▁division	-4371
▁tensions	-4372
▁explosives	-4373
▁withdrawal	-4374
▁discussions	-4375
▁transportation	-4376
hens	-4377
▁gov	-4378
▁nev	-4379
▁sev	-4380
ented	-4381
▁boat	-4382
▁troub	-4383
▁belong	-4384
▁slight	-4385
▁unlike	-4386
▁heavily	-4387
▁highway	-4388
▁keeping	-4389
▁require	-4390
▁telling	-4391
▁uranium	-4392
▁vietnam	-4393
▁approach	-4394
▁captured	-4395
▁standing	-4396
▁attempted	-4397
▁indicated	-4398
▁initially	-4399
▁neighboring	-4400
iri	-4401
uth	-4402
▁od	-4403
oses	-4404
▁cha	-4405
▁fal	-4406
▁orb	-4407
▁rac	-4408
itzer	-4409
▁cler	-4410
▁diss	-4411
▁pret	-4412
▁thin	-4413
ground	-4414
▁equip	-4415
▁joong	-4416
▁stone	-4417
▁stood	-4418
▁value	-4419
▁virus	-4420
▁asking	-4421
▁banned	-4422
▁broken	-4423
▁device	-4424
▁fellow	-4425
▁channel	-4426
▁culture	-4427
▁kennedy	-4428
▁partner	-4429
▁penalty	-4430
▁tourism	-4431
▁refugees	-4432
▁entertain	-4433
▁southeast	-4434
▁assistance	-4435
zai	-4436
rect	-4437
▁hab	-4438
▁ally	-4439
▁ariz	-4440
▁meth	-4441
ounced	-4442
▁climb	-4443
▁colon	-4444
▁faced	-4445
▁holds	-4446
▁junta	-4447
▁liver	-4448
▁seems	-4449
▁spons	-4450
▁accomp	-4451
▁flying	-4452
▁photos	-4453
▁scored	-4454
▁comfort	-4455
▁contain	-4456
▁picture	-4457
▁exploded	-4458
▁possibly	-4459
▁solution	-4460
▁appearance	-4461
▁kidnapping	-4462
▁profession	-4463
▁championship	-4464
ki	-4465
ici	-4466
▁ib	-4467
oral	-4468
▁bow	-4469
▁zoo	-4470
arant	-4471
verse	-4472
▁bure	-4473
▁mile	-4474
▁rape	-4475
isions	-4476
▁exact	-4477
▁probe	-4478
▁ships	-4479
▁tough	-4480
▁vegas	-4481
issions	-4482
▁injury	-4483
▁phones	-4484
▁thanks	-4485
▁arizona	-4486
▁clashes	-4487
▁conspir	-4488
▁reserve	-4489
▁stadium	-4490
▁warming	-4491
▁bringing	-4492
▁currency	-4493
▁governing	-4494
▁islamabad	-4495
▁foundation	-4496
▁threatening	-4497
▁correspondent	-4498
ob	-4499
iny	-4500
ipp	-4501
▁sar	-4502
adian	-4503
inger	-4504
▁bond	-4505
▁cuba	-4506
▁gain	-4507
▁goog	-4508
▁sadr	-4509
▁symb	-4510
▁carri	-4511
▁kenya	-4512
▁table	-4513
western	-4514
▁handed	-4515
▁tribal	-4516
▁greater	-4517
▁offices	-4518
▁partners	-4519
▁visiting	-4520
▁completed	-4521
▁personnel	-4522
▁disappoint	-4523
cel	-4524
ova	-4525
owa	-4526
ugg	-4527
etts	-4528
▁arr	-4529
▁dna	-4530
▁obt	-4531
achus	-4532
▁blow	-4533
▁chec	-4534
▁rall	-4535
▁sams	-4536
▁tons	-4537
▁unem	-4538
usalem	-4539
▁films	-4540
▁goals	-4541
▁goods	-4542
▁reven	-4543
▁scale	-4544
ructure	-4545
▁resour	-4546
▁entered	-4547
▁nicolas	-4548
▁opposed	-4549
achusetts	-4550
▁finished	-4551
▁projects	-4552
▁jerusalem	-4553
▁journalist	-4554
▁supporting	-4555
▁massachusetts	-4556
aro	-4557
aker	-4558
aren	-4559
idel	-4560
part	-4561
▁log	-4562
oning	-4563
▁gamb	-4564
▁hoped	-4565
▁looks	-4566
▁nepal	-4567
▁vowed	-4568
▁budget	-4569
▁ethnic	-4570
▁spears	-4571
▁delayed	-4572
▁allowing	-4573
▁unemploy	-4574
▁executives	-4575
▁nationwide	-4576
▁speculation	-4577
▁representatives	-4578
ols	-4579
oney	-4580
▁bea	-4581
▁ceo	-4582
▁pel	-4583
ulate	-4584
▁cart	-4585
▁fash	-4586
▁gets	-4587
▁kang	-4588
▁mand	-4589
▁rein	-4590
▁warr	-4591
▁wire	-4592
▁yell	-4593
idency	-4594
ighter	-4595
▁angry	-4596
▁examp	-4597
▁extrem	-4598
▁income	-4599
▁martin	-4600
▁narrow	-4601
▁remote	-4602
▁ancient	-4603
▁enforce	-4604
▁equipment	-4605
▁connection	-4606
▁negotiator	-4607
▁commissioner	-4608
mo	-4609
ope	-4610
▁ji	-4611
▁gri	-4612
▁rid	-4613
▁sat	-4614
anted	-4615
▁dogs	-4616
▁hung	-4617
▁lose	-4618
▁defin	-4619
▁fatah	-4620
▁innoc	-4621
▁buying	-4622
▁driver	-4623
▁google	-4624
▁bailout	-4625
▁crashed	-4626
▁crucial	-4627
▁footage	-4628
▁tonight	-4629
▁downtown	-4630
▁reaction	-4631
▁evacuated	-4632
▁eventually	-4633
▁involvement	-4634
wa	-4635
ena	-4636
rison	-4637
▁heat	-4638
▁jury	-4639
▁path	-4640
▁agric	-4641
▁books	-4642
chester	-4643
▁carbon	-4644
▁mahmoud	-4645
▁samsung	-4646
▁smaller	-4647
▁strengt	-4648
▁threats	-4649
▁treated	-4650
▁version	-4651
▁administ	-4652
▁intended	-4653
▁discovery	-4654
▁dismissed	-4655
za	-4656
hem	-4657
enty	-4658
ests	-4659
icip	-4660
rees	-4661
rian	-4662
tery	-4663
▁cbs	-4664
ropri	-4665
▁pray	-4666
▁wake	-4667
mitted	-4668
▁categ	-4669
▁frequ	-4670
▁haven	-4671
▁oscar	-4672
▁closer	-4673
▁iraqis	-4674
▁karzai	-4675
▁weapon	-4676
▁fashion	-4677
▁guarant	-4678
▁reasons	-4679
▁strateg	-4680
▁studies	-4681
▁windows	-4682
▁facility	-4683
▁killings	-4684
▁lawmaker	-4685
▁relative	-4686
▁seriously	-4687
▁delegation	-4688
haps	-4689
time	-4690
▁tun	-4691
▁cauc	-4692
▁dong	-4693
▁sand	-4694
▁thom	-4695
▁wolf	-4696
▁cents	-4697
▁maybe	-4698
▁rough	-4699
duction	-4700
▁active	-4701
▁estate	-4702
▁movies	-4703
▁nevada	-4704
▁outbre	-4705
▁seeing	-4706
▁stress	-4707
▁heading	-4708
▁jackson	-4709
▁perhaps	-4710
▁agricult	-4711
▁canceled	-4712
▁resident	-4713
▁stations	-4714
▁surprise	-4715
▁condemned	-4716
▁ash	-4717
▁cia	-4718
▁jim	-4719
▁uns	-4720
aches	-4721
anged	-4722
▁dani	-4723
▁ford	-4724
▁iowa	-4725
▁isol	-4726
incial	-4727
nament	-4728
▁dutch	-4729
▁nobel	-4730
▁noted	-4731
▁piece	-4732
▁subur	-4733
▁abroad	-4734
▁cruise	-4735
▁ensure	-4736
▁export	-4737
▁recall	-4738
▁tempor	-4739
▁unable	-4740
▁concert	-4741
▁perfect	-4742
▁simpson	-4743
▁walking	-4744
▁watched	-4745
▁audience	-4746
▁memorial	-4747
▁trillion	-4748
▁magnitude	-4749
▁completely	-4750
▁provincial	-4751
▁tournament	-4752
▁humanitarian	-4753
ea	-4754
amm	-4755
him	-4756
ita	-4757
lig	-4758
ura	-4759
▁nbc	-4760
ivity	-4761
lands	-4762
osing	-4763
▁chos	-4764
icient	-4765
▁album	-4766
▁comed	-4767
▁forum	-4768
▁initi	-4769
▁milan	-4770
▁advant	-4771
▁patrol	-4772
▁status	-4773
▁treaty	-4774
▁sheriff	-4775
▁speaker	-4776
▁challeng	-4777
▁standard	-4778
▁corporate	-4779
▁diplomats	-4780
▁insurance	-4781
▁relatives	-4782
▁travelers	-4783
va	-4784
cle	-4785
lad	-4786
udd	-4787
▁rh	-4788
icks	-4789
oard	-4790
ucks	-4791
▁atm	-4792
▁max	-4793
▁yes	-4794
anced	-4795
ategy	-4796
usted	-4797
▁mike	-4798
▁slam	-4799
▁subs	-4800
▁torn	-4801
▁upon	-4802
▁dubai	-4803
▁throw	-4804
▁alaska	-4805
▁applic	-4806
▁babies	-4807
▁owners	-4808
▁walked	-4809
▁weekly	-4810
▁display	-4811
▁exports	-4812
▁farmers	-4813
▁liberal	-4814
▁putting	-4815
▁extended	-4816
▁strategy	-4817
▁presidency	-4818
▁counterpart	-4819
pe	-4820
oth	-4821
▁pit	-4822
▁toy	-4823
ously	-4824
▁outr	-4825
▁wine	-4826
▁roads	-4827
▁aboard	-4828
▁berlin	-4829
▁decide	-4830
▁gunmen	-4831
▁perman	-4832
▁limited	-4833
▁proceed	-4834
▁turning	-4835
▁claiming	-4836
▁reporter	-4837
▁specific	-4838
▁watching	-4839
▁photograp	-4840
▁casualties	-4841
▁manchester	-4842
▁officially	-4843
▁organizers	-4844
▁photograph	-4845
rys	-4846
rich	-4847
sequ	-4848
uals	-4849
▁dod	-4850
▁syd	-4851
▁wen	-4852
ersey	-4853
▁aide	-4854
▁lady	-4855
▁stim	-4856
▁zeal	-4857
▁cited	-4858
▁stake	-4859
▁cheney	-4860
▁guards	-4861
▁sudden	-4862
▁clearly	-4863
▁covered	-4864
▁kingdom	-4865
▁ranking	-4866
▁champion	-4867
▁invasion	-4868
▁strongly	-4869
▁appointed	-4870
▁offensive	-4871
ny	-4872
aze	-4873
wal	-4874
▁ec	-4875
fire	-4876
ills	-4877
onom	-4878
pool	-4879
▁ker	-4880
▁lob	-4881
ivals	-4882
▁dram	-4883
▁flow	-4884
▁mont	-4885
▁skin	-4886
▁toys	-4887
▁brand	-4888
▁diego	-4889
▁louis	-4890
▁niger	-4891
▁quite	-4892
▁sound	-4893
▁columb	-4894
▁spirit	-4895
▁sydney	-4896
▁auction	-4897
▁muslims	-4898
▁smoking	-4899
▁princess	-4900
▁recovery	-4901
▁anonymity	-4902
▁standards	-4903
▁survivors	-4904
▁venezuela	-4905
▁newspapers	-4906
▁unemployment	-4907
iano	-4908
▁eve	-4909
iring	-4910
▁type	-4911
▁doubt	-4912
▁maker	-4913
▁nadal	-4914
▁pound	-4915
▁sport	-4916
▁worse	-4917
▁answer	-4918
▁bought	-4919
▁experi	-4920
▁hilton	-4921
▁sister	-4922
▁wonder	-4923
▁founder	-4924
▁benefits	-4925
▁confront	-4926
▁mohammed	-4927
▁revealed	-4928
▁detention	-4929
▁commitment	-4930
▁entertainment	-4931
abor	-4932
oked	-4933
▁bob	-4934
▁spr	-4935
pread	-4936
▁chel	-4937
▁easy	-4938
▁eyes	-4939
▁feed	-4940
▁harm	-4941
▁suit	-4942
▁tear	-4943
▁visa	-4944
▁agent	-4945
▁wides	-4946
▁advert	-4947
▁awards	-4948
▁buried	-4949
▁formal	-4950
▁humans	-4951
▁tested	-4952
▁example	-4953
▁johnson	-4954
▁raising	-4955
▁tomorrow	-4956
▁electoral	-4957
▁tradition	-4958
▁electronic	-4959
▁widespread	-4960
▁destruction	-4961
da	-4962
awa	-4963
ikh	-4964
isc	-4965
esty	-4966
iang	-4967
▁cow	-4968
▁sem	-4969
▁carl	-4970
▁hamp	-4971
▁swim	-4972
▁tape	-4973
▁wars	-4974
▁catch	-4975
▁deton	-4976
▁monks	-4977
▁relay	-4978
▁rooms	-4979
▁santa	-4980
▁spend	-4981
▁altern	-4982
▁atmosp	-4983
▁devast	-4984
▁except	-4985
▁judges	-4986
▁powers	-4987
▁profit	-4988
▁soccer	-4989
▁cutting	-4990
▁landing	-4991
▁seconds	-4992
▁insisted	-4993
▁internal	-4994
▁returning	-4995
gar	-4996
oke	-4997
onh	-4998
uce	-4999
ume	-5000
zen	-5001
▁iv	-5002
▁mu	-5003
book	-5004
inal	-5005
olit	-5006
unte	-5007
well	-5008
▁kat	-5009
▁lie	-5010
▁unp	-5011
inces	-5012
▁samp	-5013
▁wave	-5014
▁wins	-5015
atures	-5016
▁agend	-5017
▁delta	-5018
▁grave	-5019
▁knows	-5020
▁ordin	-5021
▁pilot	-5022
▁recru	-5023
▁renew	-5024
essions	-5025
▁assess	-5026
▁landed	-5027
▁lowest	-5028
▁prompt	-5029
▁resist	-5030
▁simply	-5031
▁trouble	-5032
▁volunte	-5033
▁catholic	-5034
▁favorite	-5035
▁physical	-5036
▁passenger	-5037
▁provinces	-5038
▁resources	-5039
▁continuing	-5040
▁transition	-5041
▁electricity	-5042
▁acknowledged	-5043
▁assassination	-5044
ho	-5045
bac	-5046
▁lt	-5047
▁dal	-5048
▁fan	-5049
▁suc	-5050
uster	-5051
works	-5052
▁guns	-5053
▁none	-5054
▁rome	-5055
▁stal	-5056
rysler	-5057
▁begun	-5058
▁enjoy	-5059
▁equal	-5060
▁faith	-5061
▁leads	-5062
▁loans	-5063
▁towns	-5064
▁daniel	-5065
▁jersey	-5066
▁jumped	-5067
▁urging	-5068
▁apology	-5069
▁trapped	-5070
▁ukraine	-5071
▁unclear	-5072
▁creating	-5073
▁drinking	-5074
▁malaysia	-5075
▁medicine	-5076
▁household	-5077
▁organized	-5078
▁triggered	-5079
▁communications	-5080
bar	-5081
rey	-5082
sea	-5083
set	-5084
uers	-5085
elled	-5086
ollah	-5087
osure	-5088
ville	-5089
▁appl	-5090
▁budd	-5091
▁cool	-5092
▁copy	-5093
▁diam	-5094
▁hero	-5095
▁runs	-5096
▁task	-5097
▁tort	-5098
▁birds	-5099
▁overn	-5100
▁agenda	-5101
▁choose	-5102
▁marked	-5103
▁planes	-5104
▁achieve	-5105
▁aggress	-5106
▁chelsea	-5107
▁learned	-5108
▁promote	-5109
▁targets	-5110
▁attended	-5111
▁cultural	-5112
▁negative	-5113
▁upcoming	-5114
▁certainly	-5115
▁colombian	-5116
▁discussed	-5117
▁liverpool	-5118
▁overnight	-5119
▁percentage	-5120
▁investigate	-5121
▁restrictions	-5122
aug	-5123
unk	-5124
▁ia	-5125
byon	-5126
fare	-5127
feld	-5128
▁ble	-5129
▁era	-5130
▁jes	-5131
ental	-5132
ipped	-5133
▁calm	-5134
▁outp	-5135
▁pref	-5136
▁unus	-5137
▁apart	-5138
▁basis	-5139
▁enemy	-5140
▁gains	-5141
▁overw	-5142
▁youth	-5143
▁assets	-5144
▁burned	-5145
▁examin	-5146
▁proced	-5147
▁atlanta	-5148
▁centers	-5149
▁decline	-5150
▁indiana	-5151
▁install	-5152
▁pushing	-5153
▁chemical	-5154
▁introduc	-5155
▁offering	-5156
▁yongbyon	-5157
▁advantage	-5158
▁extremely	-5159
▁interests	-5160
▁conspiracy	-5161
▁differences	-5162
ju	-5163
lor	-5164
uri	-5165
▁pc	-5166
otic	-5167
▁adj	-5168
▁ath	-5169
▁bon	-5170
▁ric	-5171
▁spy	-5172
▁tan	-5173
stein	-5174
▁coff	-5175
▁debt	-5176
▁dict	-5177
▁pair	-5178
▁plus	-5179
action	-5180
ivered	-5181
▁corps	-5182
▁exile	-5183
▁fewer	-5184
▁fires	-5185
▁reloc	-5186
▁acting	-5187
▁allows	-5188
▁gained	-5189
▁hoping	-5190
▁nature	-5191
▁potter	-5192
▁thomas	-5193
▁valley	-5194
▁diamond	-5195
▁mention	-5196
▁sparked	-5197
▁tourist	-5198
▁breaking	-5199
▁deployed	-5200
▁rescuers	-5201
▁standoff	-5202
▁wounding	-5203
▁confident	-5204
▁preparing	-5205
▁referring	-5206
▁reporting	-5207
▁successful	-5208
▁legislation	-5209
▁regulations	-5210
gen	-5211
kok	-5212
rig	-5213
▁mr	-5214
erer	-5215
fall	-5216
rend	-5217
▁sac	-5218
▁tab	-5219
▁dump	-5220
▁khan	-5221
▁matt	-5222
▁prol	-5223
▁rebu	-5224
▁shan	-5225
▁sick	-5226
▁tall	-5227
▁aides	-5228
▁prost	-5229
▁rural	-5230
▁stret	-5231
▁disarm	-5232
▁driven	-5233
▁filled	-5234
▁lifted	-5235
▁rivals	-5236
▁welcom	-5237
▁bangkok	-5238
▁chances	-5239
▁islands	-5240
▁lawsuit	-5241
▁reduced	-5242
▁strikes	-5243
▁succeed	-5244
▁maryland	-5245
▁roadside	-5246
▁substant	-5247
▁unveiled	-5248
▁concluded	-5249
▁hospitals	-5250
▁generation	-5251
▁questioning	-5252
zb	-5253
mun	-5254
gage	-5255
ading	-5256
attle	-5257
limin	-5258
▁ghaz	-5259
▁jeff	-5260
▁pump	-5261
▁vlad	-5262
iously	-5263
▁boats	-5264
▁gives	-5265
imately	-5266
▁bureau	-5267
▁expert	-5268
▁frozen	-5269
▁golden	-5270
▁plants	-5271
▁effects	-5272
▁federer	-5273
▁follows	-5274
▁healthy	-5275
▁herself	-5276
▁abdullah	-5277
▁entering	-5278
▁prelimin	-5279
▁reaching	-5280
▁slightly	-5281
▁teachers	-5282
▁delivered	-5283
▁permanent	-5284
▁producing	-5285
ctic	-5286
etic	-5287
▁bah	-5288
▁cry	-5289
▁fab	-5290
▁hug	-5291
▁jul	-5292
▁mph	-5293
▁raf	-5294
▁sam	-5295
▁via	-5296
oline	-5297
▁bell	-5298
▁boss	-5299
▁ease	-5300
▁fier	-5301
▁gulf	-5302
▁hezb	-5303
▁hole	-5304
▁tsun	-5305
▁adopt	-5306
▁basic	-5307
▁bench	-5308
▁dress	-5309
▁fayed	-5310
▁hwang	-5311
▁optim	-5312
▁petro	-5313
▁editor	-5314
▁enrich	-5315
▁presum	-5316
▁proper	-5317
▁ranked	-5318
▁simple	-5319
▁stores	-5320
▁ability	-5321
▁advance	-5322
▁closing	-5323
▁complic	-5324
▁connect	-5325
▁digital	-5326
▁edwards	-5327
▁falling	-5328
▁focused	-5329
▁invited	-5330
▁zealand	-5331
▁canadian	-5332
▁homeland	-5333
▁location	-5334
▁suggests	-5335
▁bilateral	-5336
▁inflation	-5337
▁opponents	-5338
▁supported	-5339
▁inspectors	-5340
▁statements	-5341
▁controversy	-5342
fl	-5343
iat	-5344
ipe	-5345
kel	-5346
▁eh	-5347
▁ru	-5348
arta	-5349
iami	-5350
life	-5351
▁wil	-5352
▁amaz	-5353
▁boys	-5354
▁edge	-5355
▁gonz	-5356
▁leng	-5357
▁mour	-5358
▁swed	-5359
▁inaug	-5360
▁miami	-5361
▁palin	-5362
▁proud	-5363
▁prove	-5364
▁solar	-5365
▁spect	-5366
▁darfur	-5367
▁detain	-5368
▁remove	-5369
▁banking	-5370
▁meaning	-5371
▁rockets	-5372
▁statist	-5373
▁tsunami	-5374
▁chrysler	-5375
▁practice	-5376
▁hezbollah	-5377
▁materials	-5378
▁presented	-5379
▁preliminary	-5380
▁unification	-5381
▁conservation	-5382
era	-5383
▁du	-5384
iest	-5385
rell	-5386
▁guy	-5387
▁wis	-5388
▁aids	-5389
▁bost	-5390
▁emot	-5391
▁flew	-5392
▁grab	-5393
▁manh	-5394
▁note	-5395
▁sail	-5396
▁sean	-5397
▁shir	-5398
▁sust	-5399
▁volc	-5400
▁exhib	-5401
▁fatal	-5402
▁learn	-5403
▁campus	-5404
▁couldn	-5405
▁fisher	-5406
▁formed	-5407
▁fought	-5408
▁method	-5409
▁trains	-5410
▁yellow	-5411
▁convers	-5412
▁journey	-5413
▁radical	-5414
▁overwhel	-5415
▁strength	-5416
▁southwest	-5417
▁administrat	-5418
▁firefighters	-5419
▁hospitalized	-5420
kin	-5421
ram	-5422
uts	-5423
war	-5424
agan	-5425
bery	-5426
rick	-5427
stri	-5428
▁jon	-5429
▁wid	-5430
abeth	-5431
onhap	-5432
▁argu	-5433
▁holy	-5434
▁lake	-5435
▁lind	-5436
▁quit	-5437
▁scot	-5438
▁tiny	-5439
▁yout	-5440
akarta	-5441
▁split	-5442
▁threw	-5443
▁truth	-5444
▁bottom	-5445
▁fallen	-5446
▁intens	-5447
▁interp	-5448
▁margin	-5449
▁pretty	-5450
▁pushed	-5451
▁yonhap	-5452
ropriate	-5453
▁arrival	-5454
▁benazir	-5455
▁coordin	-5456
▁couples	-5457
▁dismant	-5458
▁options	-5459
▁reading	-5460
▁refugee	-5461
▁retired	-5462
▁staying	-5463
▁testing	-5464
▁welcome	-5465
▁colorado	-5466
▁exercise	-5467
▁findings	-5468
▁flooding	-5469
▁prompted	-5470
▁warnings	-5471
▁emissions	-5472
▁neighbors	-5473
▁manufacture	-5474
pa	-5475
awi	-5476
isf	-5477
▁pu	-5478
oria	-5479
▁aer	-5480
▁hat	-5481
▁ped	-5482
▁lama	-5483
▁mars	-5484
▁sony	-5485
▁absol	-5486
▁blame	-5487
▁breat	-5488
▁chart	-5489
▁dalai	-5490
▁lying	-5491
▁macau	-5492
▁older	-5493
▁shout	-5494
▁gunman	-5495
▁inches	-5496
▁larger	-5497
▁offers	-5498
▁remark	-5499
▁shrine	-5500
entially	-5501
▁boycott	-5502
▁promise	-5503
▁recover	-5504
▁youtube	-5505
▁delivery	-5506
▁outbreak	-5507
▁resigned	-5508
▁shopping	-5509
▁disappear	-5510
▁predicted	-5511
▁requested	-5512
▁repeatedly	-5513
ala	-5514
bur	-5515
ded	-5516
eed	-5517
▁ta	-5518
pect	-5519
zing	-5520
▁hub	-5521
ailed	-5522
ledge	-5523
leine	-5524
ptive	-5525
undai	-5526
▁drew	-5527
▁fate	-5528
▁pace	-5529
▁plat	-5530
▁scen	-5531
▁tack	-5532
▁vari	-5533
▁drawn	-5534
▁ideas	-5535
▁overt	-5536
▁upper	-5537
▁afford	-5538
▁sector	-5539
▁hyundai	-5540
▁neither	-5541
▁profile	-5542
▁surface	-5543
▁towards	-5544
▁gasoline	-5545
▁northwest	-5546
▁girlfriend	-5547
▁restaurant	-5548
▁immigration	-5549
▁temperatures	-5550
ox	-5551
hab	-5552
thr	-5553
▁az	-5554
▁ox	-5555
emic	-5556
inct	-5557
ouri	-5558
▁abc	-5559
▁gap	-5560
▁mut	-5561
▁sor	-5562
▁tay	-5563
rated	-5564
water	-5565
▁exit	-5566
▁iaea	-5567
atican	-5568
▁cease	-5569
▁glass	-5570
▁globe	-5571
▁steel	-5572
▁strip	-5573
istered	-5574
▁boston	-5575
▁cleric	-5576
▁detect	-5577
▁jailed	-5578
▁landsl	-5579
▁seemed	-5580
▁stimul	-5581
▁vladim	-5582
▁edition	-5583
▁engaged	-5584
▁erupted	-5585
▁escaped	-5586
▁expects	-5587
▁funding	-5588
▁reality	-5589
▁vatican	-5590
▁writing	-5591
▁absolute	-5592
▁accompan	-5593
▁changing	-5594
▁searching	-5595
▁stability	-5596
▁atmosphere	-5597
▁individuals	-5598
▁professional	-5599
▁congressional	-5600
kk	-5601
rae	-5602
rec	-5603
▁ak	-5604
omes	-5605
▁bac	-5606
▁ess	-5607
▁gib	-5608
▁mun	-5609
▁sin	-5610
illed	-5611
iters	-5612
▁cycl	-5613
▁drag	-5614
▁gard	-5615
▁liqu	-5616
▁neck	-5617
▁sets	-5618
▁drove	-5619
▁label	-5620
▁osama	-5621
▁sarah	-5622
▁scott	-5623
▁shock	-5624
▁degree	-5625
▁disney	-5626
▁earned	-5627
▁length	-5628
▁orders	-5629
▁airstri	-5630
▁captain	-5631
▁compens	-5632
▁drivers	-5633
▁patient	-5634
▁regions	-5635
▁younger	-5636
▁friendly	-5637
▁messages	-5638
▁survived	-5639
▁argentina	-5640
▁knowledge	-5641
▁recovered	-5642
▁targeting	-5643
▁enforcement	-5644
oma	-5645
uct	-5646
▁uh	-5647
enth	-5648
hist	-5649
▁eat	-5650
▁fox	-5651
▁nav	-5652
▁rig	-5653
▁rio	-5654
▁syn	-5655
acity	-5656
shire	-5657
▁chap	-5658
▁grew	-5659
▁stro	-5660
▁tied	-5661
▁tree	-5662
▁vast	-5663
▁vent	-5664
▁wait	-5665
minent	-5666
▁bound	-5667
▁jesus	-5668
▁sight	-5669
▁adults	-5670
▁bigger	-5671
▁circum	-5672
▁desert	-5673
▁flames	-5674
▁lights	-5675
▁closely	-5676
▁failing	-5677
▁subject	-5678
▁telecom	-5679
▁atlantic	-5680
▁formally	-5681
▁identify	-5682
▁producer	-5683
▁publicly	-5684
▁scotland	-5685
▁struggle	-5686
▁madeleine	-5687
▁observers	-5688
▁responded	-5689
▁astronauts	-5690
▁restaurants	-5691
▁communication	-5692
ato	-5693
ini	-5694
see	-5695
▁kaz	-5696
ansas	-5697
erved	-5698
lling	-5699
osite	-5700
▁aren	-5701
▁ehud	-5702
▁exam	-5703
▁reun	-5704
▁thro	-5705
▁escal	-5706
▁firms	-5707
▁manip	-5708
▁paint	-5709
▁sixth	-5710
mission	-5711
▁athlet	-5712
▁corner	-5713
▁master	-5714
▁multip	-5715
▁option	-5716
▁papers	-5717
▁termin	-5718
▁coastal	-5719
▁managed	-5720
▁pirates	-5721
▁reforms	-5722
▁stepped	-5723
▁wedding	-5724
▁estimate	-5725
▁innocent	-5726
▁vladimir	-5727
▁helicopters	-5728
▁broadcasting	-5729
▁expectations	-5730
bod	-5731
jad	-5732
nis	-5733
anch	-5734
onic	-5735
ques	-5736
rete	-5737
▁cos	-5738
▁lux	-5739
acing	-5740
ordan	-5741
▁airb	-5742
▁brut	-5743
▁chun	-5744
▁eliz	-5745
▁emph	-5746
▁ends	-5747
▁merc	-5748
▁arsen	-5749
▁delhi	-5750
▁limit	-5751
▁marks	-5752
▁newly	-5753
▁uncon	-5754
▁views	-5755
▁waste	-5756
▁barcel	-5757
▁convoy	-5758
▁escape	-5759
▁paying	-5760
▁runner	-5761
ologists	-5762
▁matches	-5763
▁teacher	-5764
▁accounts	-5765
▁diplomat	-5766
▁pregnant	-5767
▁positions	-5768
▁reduction	-5769
▁attempting	-5770
▁indonesian	-5771
▁introduced	-5772
▁disarmament	-5773
▁established	-5774
▁philippines	-5775
aka	-5776
ias	-5777
cher	-5778
look	-5779
agues	-5780
deleg	-5781
erous	-5782
raeus	-5783
▁beef	-5784
▁duty	-5785
▁warm	-5786
atever	-5787
▁abdul	-5788
▁debut	-5789
▁habit	-5790
▁squad	-5791
▁unity	-5792
▁boeing	-5793
▁counts	-5794
▁jordan	-5795
▁memory	-5796
▁serbia	-5797
▁shared	-5798
▁string	-5799
▁blocked	-5800
▁divided	-5801
▁feeling	-5802
▁license	-5803
▁birthday	-5804
▁circumst	-5805
▁contests	-5806
▁islamist	-5807
▁petraeus	-5808
▁recorded	-5809
▁whatever	-5810
▁alexander	-5811
▁barcelona	-5812
▁deployment	-5813
▁superdeleg	-5814
▁surrounded	-5815
ek	-5816
▁cz	-5817
▁gi	-5818
▁ug	-5819
form	-5820
ghai	-5821
orse	-5822
▁gop	-5823
▁barb	-5824
▁halt	-5825
▁lift	-5826
▁migr	-5827
▁ride	-5828
▁sort	-5829
▁verd	-5830
rating	-5831
▁accus	-5832
▁anger	-5833
▁anton	-5834
▁kevin	-5835
vereign	-5836
▁beaten	-5837
▁bright	-5838
▁firing	-5839
▁adopted	-5840
▁cleared	-5841
▁illness	-5842
▁stories	-5843
▁shanghai	-5844
▁stronger	-5845
▁troubled	-5846
▁villages	-5847
▁welcomed	-5848
▁elizabeth	-5849
▁gathering	-5850
▁illegally	-5851
▁peacekeep	-5852
▁sovereign	-5853
▁suspicion	-5854
▁challenges	-5855
dc	-5856
gl	-5857
vi	-5858
oen	-5859
rad	-5860
▁ay	-5861
outs	-5862
wart	-5863
akers	-5864
inals	-5865
night	-5866
▁gore	-5867
▁summ	-5868
▁veto	-5869
inejad	-5870
▁civic	-5871
▁hawai	-5872
▁moves	-5873
▁plung	-5874
▁shift	-5875
▁trees	-5876
▁crowds	-5877
▁ghazni	-5878
▁mainly	-5879
▁metrop	-5880
▁superv	-5881
▁anticip	-5882
▁beating	-5883
▁deliber	-5884
▁rallies	-5885
▁infected	-5886
▁maintain	-5887
▁traveled	-5888
▁wildlife	-5889
▁hampshire	-5890
▁transform	-5891
▁federation	-5892
▁registered	-5893
▁venezuelan	-5894
▁ahmadinejad	-5895
▁participate	-5896
▁representative	-5897
ola	-5898
chen	-5899
▁obv	-5900
▁pad	-5901
acked	-5902
attan	-5903
▁acts	-5904
▁belg	-5905
▁chen	-5906
▁crop	-5907
▁farc	-5908
▁link	-5909
▁ramp	-5910
▁basra	-5911
▁kerry	-5912
▁urban	-5913
▁wheel	-5914
▁begins	-5915
▁bloody	-5916
▁causes	-5917
▁reagan	-5918
▁reject	-5919
▁unions	-5920
▁videos	-5921
▁burning	-5922
▁correct	-5923
▁forcing	-5924
▁hopeful	-5925
▁jakarta	-5926
▁sharply	-5927
▁airports	-5928
▁watchdog	-5929
▁engineers	-5930
▁primaries	-5931
▁sensitive	-5932
▁colleagues	-5933
▁difference	-5934
▁enrichment	-5935
▁monitoring	-5936
▁punishment	-5937
▁revolutionary	-5938
gs	-5939
daq	-5940
ean	-5941
pan	-5942
vey	-5943
ovic	-5944
▁cra	-5945
▁gor	-5946
▁jam	-5947
▁kib	-5948
▁ages	-5949
▁imag	-5950
▁knee	-5951
▁vacc	-5952
▁gradu	-5953
▁hills	-5954
▁lohan	-5955
▁metal	-5956
▁comedy	-5957
▁deeply	-5958
▁eating	-5959
▁elimin	-5960
▁floods	-5961
▁morgan	-5962
▁pledge	-5963
▁prepar	-5964
▁stance	-5965
▁arsenal	-5966
▁bombers	-5967
▁dealing	-5968
▁letters	-5969
▁patrick	-5970
▁routine	-5971
▁secular	-5972
▁stalled	-5973
▁abducted	-5974
▁capacity	-5975
▁compound	-5976
▁stressed	-5977
▁thinking	-5978
▁unlikely	-5979
▁vacation	-5980
▁economist	-5981
▁effective	-5982
▁expensive	-5983
▁highlight	-5984
▁manhattan	-5985
▁regarding	-5986
▁scientist	-5987
▁televised	-5988
▁violation	-5989
▁disappointed	-5990
▁understanding	-5991
dy	-5992
aid	-5993
chi	-5994
jev	-5995
umi	-5996
▁dv	-5997
aret	-5998
icit	-5999
ilit	-6000
▁cig	-6001
▁pin	-6002
▁sli	-6003
▁slo	-6004
▁dick	-6005
▁foss	-6006
▁hunt	-6007
▁lung	-6008
▁mamm	-6009
▁mate	-6010
▁nick	-6011
▁peru	-6012
▁wear	-6013
olitan	-6014
▁bened	-6015
▁blago	-6016
▁camps	-6017
▁chile	-6018
▁grown	-6019
▁liter	-6020
▁loved	-6021
▁swept	-6022
▁chosen	-6023
▁cooper	-6024
▁packed	-6025
▁stands	-6026
▁subsid	-6027
▁worker	-6028
▁capable	-6029
▁emerged	-6030
▁roughly	-6031
▁accusing	-6032
▁briefing	-6033
▁caucuses	-6034
▁features	-6035
▁numerous	-6036
▁portugal	-6037
▁everybody	-6038
▁intention	-6039
▁nominated	-6040
▁apologized	-6041
▁individual	-6042
▁alternative	-6043
▁demonstration	-6044
▁manufacturing	-6045
zo	-6046
ero	-6047
iop	-6048
ios	-6049
san	-6050
uls	-6051
▁ye	-6052
olis	-6053
pass	-6054
▁gmt	-6055
▁moh	-6056
▁pkk	-6057
▁sha	-6058
▁unn	-6059
itely	-6060
owitz	-6061
point	-6062
▁bull	-6063
▁toug	-6064
ocking	-6065
▁novel	-6066
▁roman	-6067
▁schol	-6068
illance	-6069
▁arrive	-6070
▁bitter	-6071
▁faster	-6072
▁hotels	-6073
▁jewish	-6074
▁leaves	-6075
▁michel	-6076
▁scores	-6077
▁conclus	-6078
▁earning	-6079
▁factory	-6080
▁funeral	-6081
▁imports	-6082
▁intense	-6083
▁mississ	-6084
▁plastic	-6085
▁restore	-6086
▁ronaldo	-6087
▁worried	-6088
▁buddhist	-6089
▁columbia	-6090
▁directed	-6091
▁midnight	-6092
▁mortgage	-6093
▁obtained	-6094
▁passport	-6095
▁remember	-6096
▁tropical	-6097
▁brazilian	-6098
▁detonated	-6099
▁direction	-6100
▁initiative	-6101
▁scientific	-6102
▁engineering	-6103
▁southeastern	-6104
▁surveillance	-6105
▁circumstances	-6106
asc	-6107
oms	-6108
pet	-6109
▁ka	-6110
aine	-6111
airo	-6112
bing	-6113
ippi	-6114
▁alt	-6115
▁hid	-6116
▁ire	-6117
▁jol	-6118
▁woo	-6119
board	-6120
icial	-6121
illas	-6122
oking	-6123
onium	-6124
▁brig	-6125
▁harv	-6126
▁sole	-6127
▁uses	-6128
asters	-6129
illing	-6130
▁barri	-6131
▁bills	-6132
▁elder	-6133
▁entry	-6134
▁henry	-6135
▁mouth	-6136
▁archae	-6137
▁guests	-6138
▁hawaii	-6139
▁kibaki	-6140
▁talked	-6141
▁machine	-6142
▁maximum	-6143
▁militia	-6144
▁rescued	-6145
▁sitting	-6146
▁whaling	-6147
▁commerce	-6148
▁greatest	-6149
▁reconcil	-6150
▁supposed	-6151
▁decisions	-6152
▁dominated	-6153
▁successor	-6154
▁mississippi	-6155
▁southwestern	-6156
aph	-6157
arr	-6158
dro	-6159
ori	-6160
▁si	-6161
anke	-6162
ipel	-6163
▁ank	-6164
▁dur	-6165
▁nik	-6166
usive	-6167
▁aged	-6168
▁epic	-6169
▁hasn	-6170
▁hide	-6171
▁impe	-6172
▁stun	-6173
▁unif	-6174
jevich	-6175
▁aware	-6176
▁false	-6177
▁quiet	-6178
▁toxic	-6179
through	-6180
▁bullet	-6181
▁cambod	-6182
▁coffee	-6183
▁debris	-6184
▁inquir	-6185
▁mccann	-6186
▁promot	-6187
▁specif	-6188
▁backing	-6189
▁charity	-6190
▁cyclone	-6191
▁degrees	-6192
▁devices	-6193
▁founded	-6194
▁musical	-6195
▁rapidly	-6196
▁theater	-6197
▁virtual	-6198
▁bankrupt	-6199
▁identity	-6200
▁multiple	-6201
▁replaced	-6202
▁discussion	-6203
▁originally	-6204
▁blagojevich	-6205
▁breakthrough	-6206
▁investigations	-6207
▁superdelegates	-6208
alf	-6209
bow	-6210
▁ms	-6211
▁na	-6212
adel	-6213
▁fta	-6214
▁hiv	-6215
▁lew	-6216
▁pap	-6217
▁pav	-6218
antly	-6219
eared	-6220
ighth	-6221
iliar	-6222
imony	-6223
▁chad	-6224
▁elev	-6225
▁guer	-6226
▁sons	-6227
▁tend	-6228
▁chong	-6229
▁disag	-6230
▁drama	-6231
▁greet	-6232
▁multi	-6233
▁oblig	-6234
▁persu	-6235
▁polar	-6236
▁shops	-6237
▁swiss	-6238
attered	-6239
▁broadc	-6240
▁castro	-6241
▁chiefs	-6242
▁conver	-6243
▁feared	-6244
▁fields	-6245
▁greece	-6246
▁nasdaq	-6247
▁wouldn	-6248
▁citizen	-6249
▁endorse	-6250
▁exactly	-6251
▁mohamed	-6252
▁section	-6253
▁striker	-6254
▁warrant	-6255
▁battling	-6256
▁benedict	-6257
▁brothers	-6258
▁concrete	-6259
▁egyptian	-6260
▁encourage	-6261
▁technical	-6262
▁presidents	-6263
▁agriculture	-6264
▁participants	-6265
inn	-6266
isa	-6267
▁eb	-6268
anes	-6269
wise	-6270
▁lit	-6271
▁sri	-6272
▁yem	-6273
adesh	-6274
bacco	-6275
essed	-6276
known	-6277
maker	-6278
verty	-6279
▁beer	-6280
▁boom	-6281
▁crus	-6282
▁kick	-6283
▁lank	-6284
▁typh	-6285
▁yous	-6286
tering	-6287
▁adult	-6288
▁amend	-6289
▁apply	-6290
▁conce	-6291
▁loyal	-6292
▁phoen	-6293
▁shore	-6294
▁shots	-6295
▁vital	-6296
▁dinner	-6297
▁excess	-6298
▁makers	-6299
▁native	-6300
▁steven	-6301
▁cameras	-6302
▁concent	-6303
▁consequ	-6304
▁explain	-6305
▁mexican	-6306
▁poverty	-6307
▁referen	-6308
▁survive	-6309
▁tobacco	-6310
▁unknown	-6311
▁mainland	-6312
▁moderate	-6313
▁normally	-6314
▁mountains	-6315
▁recommend	-6316
▁collection	-6317
▁complained	-6318
▁depression	-6319
▁campaigning	-6320
▁underground	-6321
▁metropolitan	-6322
esc	-6323
ius	-6324
osi	-6325
▁dy	-6326
▁zo	-6327
irty	-6328
izes	-6329
▁awa	-6330
▁coc	-6331
▁seg	-6332
▁vit	-6333
▁wre	-6334
erves	-6335
▁anal	-6336
▁brad	-6337
▁glac	-6338
▁outs	-6339
▁porn	-6340
▁stan	-6341
▁sung	-6342
ancing	-6343
ortion	-6344
ration	-6345
▁antar	-6346
▁bangl	-6347
▁drink	-6348
▁error	-6349
▁links	-6350
▁orche	-6351
▁photo	-6352
▁yemen	-6353
▁airbus	-6354
▁argued	-6355
▁assert	-6356
▁emphas	-6357
▁height	-6358
▁integr	-6359
▁joseph	-6360
▁prohib	-6361
▁somali	-6362
▁symbol	-6363
▁window	-6364
▁borders	-6365
▁fortune	-6366
▁phoenix	-6367
▁sharing	-6368
▁unusual	-6369
▁category	-6370
▁schedule	-6371
▁stimulus	-6372
▁boyfriend	-6373
▁prompting	-6374
▁testimony	-6375
▁authorized	-6376
▁suggesting	-6377
▁communities	-6378
▁overwhelming	-6379
uma	-6380
uni	-6381
won	-6382
zed	-6383
▁kl	-6384
▁nd	-6385
▁rd	-6386
▁fit	-6387
▁gye	-6388
▁mit	-6389
▁rif	-6390
▁ske	-6391
enses	-6392
orted	-6393
▁bags	-6394
▁cham	-6395
▁file	-6396
▁golf	-6397
▁murd	-6398
▁palm	-6399
▁plut	-6400
▁pose	-6401
▁sche	-6402
ashing	-6403
encing	-6404
ichuan	-6405
▁alban	-6406
▁chest	-6407
▁czech	-6408
▁deals	-6409
▁gross	-6410
▁harsh	-6411
▁smugg	-6412
▁stern	-6413
▁sweep	-6414
achment	-6415
▁dubbed	-6416
▁easily	-6417
▁insist	-6418
▁runway	-6419
▁sheikh	-6420
▁staged	-6421
▁thirds	-6422
standing	-6423
ulations	-6424
▁austria	-6425
▁becomes	-6426
▁marines	-6427
▁rebuild	-6428
▁somalia	-6429
▁stephen	-6430
▁uniform	-6431
▁striking	-6432
▁unfortun	-6433
▁violated	-6434
▁attending	-6435
▁contained	-6436
▁increases	-6437
▁performed	-6438
▁plutonium	-6439
▁corporation	-6440
▁negotiators	-6441
▁reconciliation	-6442
po	-6443
agn	-6444
oli	-6445
oto	-6446
roc	-6447
achi	-6448
aint	-6449
ardo	-6450
eces	-6451
ella	-6452
▁bes	-6453
▁bor	-6454
▁dad	-6455
▁dan	-6456
▁joe	-6457
▁joh	-6458
▁lah	-6459
▁ray	-6460
▁tel	-6461
ecess	-6462
inted	-6463
▁busy	-6464
▁lapt	-6465
▁mete	-6466
▁wors	-6467
dering	-6468
▁bases	-6469
▁chris	-6470
▁doors	-6471
▁feels	-6472
▁plays	-6473
▁solid	-6474
▁turns	-6475
▁defect	-6476
▁fierce	-6477
▁gallon	-6478
▁mccorm	-6479
▁parent	-6480
▁storms	-6481
▁strict	-6482
▁temple	-6483
▁tennes	-6484
▁underw	-6485
▁benefit	-6486
▁fishing	-6487
▁hitting	-6488
▁outrage	-6489
▁separat	-6490
▁trigger	-6491
▁worries	-6492
▁distance	-6493
▁dramatic	-6494
▁familiar	-6495
▁instruct	-6496
▁payments	-6497
▁alongside	-6498
▁locations	-6499
▁otherwise	-6500
▁conducting	-6501
▁relatively	-6502
▁legislative	-6503
▁transferred	-6504
ua	-6505
bor	-6506
dum	-6507
efa	-6508
ema	-6509
met	-6510
rie	-6511
gers	-6512
iani	-6513
wait	-6514
▁gad	-6515
aters	-6516
echan	-6517
icked	-6518
▁aung	-6519
▁fern	-6520
▁kent	-6521
▁sang	-6522
▁sees	-6523
▁shif	-6524
▁spac	-6525
▁uefa	-6526
▁capit	-6527
▁cloud	-6528
▁legit	-6529
▁sweet	-6530
▁write	-6531
ography	-6532
▁courts	-6533
▁depend	-6534
▁factor	-6535
▁hosted	-6536
▁kuwait	-6537
▁observ	-6538
▁romney	-6539
▁tackle	-6540
▁briefly	-6541
▁comprom	-6542
▁divorce	-6543
▁inaugur	-6544
▁privacy	-6545
▁ranging	-6546
▁controls	-6547
▁defended	-6548
▁networks	-6549
▁ordinary	-6550
▁platform	-6551
▁priority	-6552
▁celebrity	-6553
▁generally	-6554
▁tennessee	-6555
▁absolutely	-6556
▁defendants	-6557
▁referendum	-6558
▁responding	-6559
▁electronics	-6560
▁institutions	-6561
dd	-6562
had	-6563
ito	-6564
aire	-6565
enna	-6566
hips	-6567
mand	-6568
ourt	-6569
reek	-6570
▁ski	-6571
▁tam	-6572
▁yen	-6573
dinga	-6574
dogan	-6575
owing	-6576
umbai	-6577
uting	-6578
▁dust	-6579
▁khal	-6580
▁kiss	-6581
▁loan	-6582
▁ryan	-6583
▁wart	-6584
▁cargo	-6585
▁flags	-6586
▁frust	-6587
▁larry	-6588
▁nancy	-6589
▁pilgr	-6590
▁raids	-6591
▁teens	-6592
▁tiger	-6593
▁worry	-6594
ception	-6595
▁artist	-6596
▁carter	-6597
▁endors	-6598
▁infant	-6599
▁meteor	-6600
▁motion	-6601
▁mumbai	-6602
▁myster	-6603
▁odinga	-6604
▁oldest	-6605
▁satisf	-6606
▁shield	-6607
▁stable	-6608
▁thinks	-6609
▁unrest	-6610
▁antonio	-6611
▁barrels	-6612
▁consist	-6613
▁erdogan	-6614
▁gambari	-6615
▁kidnapp	-6616
▁pointed	-6617
▁prepare	-6618
▁returns	-6619
▁suspend	-6620
▁writers	-6621
▁advanced	-6622
▁baseball	-6623
▁combined	-6624
▁contrast	-6625
▁handling	-6626
▁improved	-6627
▁inspired	-6628
▁interrog	-6629
▁purchase	-6630
▁receiving	-6631
▁temporary	-6632
▁wolfowitz	-6633
▁occupation	-6634
▁appointment	-6635
▁compensation	-6636
▁administrative	-6637
di	-6638
hs	-6639
kets	-6640
▁ded	-6641
▁emp	-6642
▁hee	-6643
▁hij	-6644
▁jac	-6645
▁jae	-6646
▁nam	-6647
▁sir	-6648
liest	-6649
mates	-6650
usion	-6651
▁anth	-6652
▁cave	-6653
▁kate	-6654
▁pitt	-6655
ansion	-6656
makers	-6657
▁advoc	-6658
▁galax	-6659
▁libya	-6660
▁paulo	-6661
▁saved	-6662
▁thank	-6663
▁walls	-6664
angered	-6665
▁advice	-6666
▁athens	-6667
▁listed	-6668
▁mechan	-6669
▁poland	-6670
▁unders	-6671
▁wounds	-6672
idelines	-6673
▁balance	-6674
▁capture	-6675
▁crossed	-6676
▁fernand	-6677
▁mistake	-6678
▁monitor	-6679
▁operate	-6680
▁profits	-6681
▁spotted	-6682
▁switzer	-6683
▁turnout	-6684
▁typhoon	-6685
▁veteran	-6686
▁athletes	-6687
▁imprison	-6688
▁isolated	-6689
▁throwing	-6690
▁explosive	-6691
▁incidents	-6692
▁recognize	-6693
▁shootings	-6694
▁announcing	-6695
▁bangladesh	-6696
▁containing	-6697
▁endangered	-6698
▁advertising	-6699
▁switzerland	-6700
▁northeastern	-6701
law	-6702
sey	-6703
mont	-6704
▁amn	-6705
anded	-6706
▁anch	-6707
▁bath	-6708
▁bowl	-6709
▁excl	-6710
▁legs	-6711
▁marc	-6712
▁soil	-6713
▁unex	-6714
▁aside	-6715
▁cable	-6716
▁crist	-6717
▁fleet	-6718
▁laure	-6719
▁mixed	-6720
▁nowak	-6721
▁orbit	-6722
▁slump	-6723
▁units	-6724
oration	-6725
▁advent	-6726
▁agents	-6727
▁andrew	-6728
▁destin	-6729
▁donald	-6730
▁ethiop	-6731
▁extend	-6732
▁imposs	-6733
▁legend	-6734
▁liquid	-6735
▁ousted	-6736
▁pelosi	-6737
▁amnesty	-6738
▁amounts	-6739
▁arrests	-6740
▁awarded	-6741
▁carrier	-6742
▁clothes	-6743
▁joining	-6744
▁praised	-6745
▁purpose	-6746
▁trained	-6747
▁appealed	-6748
▁delegate	-6749
▁gonzales	-6750
▁indicate	-6751
▁provides	-6752
▁benchmark	-6753
▁fundament	-6754
▁mccormack	-6755
▁producers	-6756
▁promoting	-6757
▁shortages	-6758
▁structure	-6759
▁villagers	-6760
▁relocation	-6761
▁settlement	-6762
▁disappeared	-6763
▁sovereignty	-6764
gi	-6765
ka	-6766
▁yi	-6767
amas	-6768
ario	-6769
atra	-6770
irai	-6771
roit	-6772
ucky	-6773
uter	-6774
▁dry	-6775
▁jin	-6776
▁sav	-6777
▁tsv	-6778
ulner	-6779
▁acce	-6780
▁clar	-6781
▁eric	-6782
▁huck	-6783
▁roof	-6784
▁shah	-6785
▁tent	-6786
▁wish	-6787
▁breed	-6788
▁burst	-6789
▁charl	-6790
▁embry	-6791
▁guerr	-6792
▁hamid	-6793
▁meter	-6794
▁moore	-6795
▁solve	-6796
▁wreck	-6797
▁actors	-6798
▁attrib	-6799
▁beauty	-6800
▁darwin	-6801
▁easier	-6802
▁gyeong	-6803
▁miners	-6804
▁missed	-6805
▁motors	-6806
▁pursue	-6807
▁rivers	-6808
▁stalin	-6809
▁therap	-6810
▁transl	-6811
▁values	-6812
▁airways	-6813
▁capitol	-6814
▁dealers	-6815
▁detroit	-6816
▁hunting	-6817
▁ireland	-6818
▁seventh	-6819
▁shelter	-6820
▁volcano	-6821
▁welfare	-6822
▁winners	-6823
▁mohammad	-6824
▁prospect	-6825
▁referred	-6826
▁senators	-6827
▁thousand	-6828
▁attorneys	-6829
▁complaint	-6830
▁improving	-6831
▁negotiate	-6832
▁pollution	-6833
▁submitted	-6834
▁surprised	-6835
▁extraordin	-6836
▁extremists	-6837
▁volunteers	-6838
▁appropriate	-6839
▁successfully	-6840
ads	-6841
bes	-6842
quo	-6843
rit	-6844
▁gy	-6845
brid	-6846
gans	-6847
mond	-6848
oons	-6849
oren	-6850
phia	-6851
uese	-6852
▁keb	-6853
▁les	-6854
▁lev	-6855
▁naz	-6856
▁soo	-6857
burgh	-6858
rahim	-6859
under	-6860
▁fulf	-6861
▁hugo	-6862
▁inch	-6863
▁leak	-6864
▁orle	-6865
▁spur	-6866
▁unac	-6867
▁latin	-6868
▁lobby	-6869
▁opens	-6870
▁phill	-6871
▁weigh	-6872
▁whale	-6873
angirai	-6874
▁copies	-6875
▁eighth	-6876
▁freeze	-6877
▁nether	-6878
▁orange	-6879
▁regret	-6880
▁runoff	-6881
▁stabil	-6882
▁starts	-6883
▁strain	-6884
▁visits	-6885
▁whales	-6886
adelphia	-6887
atically	-6888
▁caution	-6889
▁dressed	-6890
▁pleaded	-6891
▁samples	-6892
▁seattle	-6893
▁torture	-6894
▁variety	-6895
▁wartime	-6896
▁detected	-6897
▁employee	-6898
▁petition	-6899
▁quarterf	-6900
▁recalled	-6901
▁wireless	-6902
▁efficient	-6903
▁approached	-6904
▁complaints	-6905
▁economists	-6906
▁impossible	-6907
▁portuguese	-6908
▁richardson	-6909
▁securities	-6910
▁tsvangirai	-6911
▁accusations	-6912
▁documentary	-6913
▁experienced	-6914
▁negotiating	-6915
▁netherlands	-6916
▁photographs	-6917
▁philadelphia	-6918
bl	-6919
ez	-6920
akh	-6921
don	-6922
imp	-6923
uez	-6924
apes	-6925
bour	-6926
▁hud	-6927
▁lyn	-6928
▁mog	-6929
▁vig	-6930
ining	-6931
oping	-6932
space	-6933
▁bars	-6934
▁core	-6935
▁emir	-6936
▁fred	-6937
▁giul	-6938
▁gren	-6939
▁laid	-6940
▁mall	-6941
▁obst	-6942
▁peak	-6943
▁touc	-6944
▁chain	-6945
▁chaos	-6946
▁crews	-6947
▁explo	-6948
▁posts	-6949
▁semif	-6950
▁terri	-6951
▁toile	-6952
actions	-6953
entions	-6954
▁conven	-6955
▁divers	-6956
▁finger	-6957
▁hybrid	-6958
▁rushed	-6959
▁syrian	-6960
▁twenty	-6961
▁yangon	-6962
▁abandon	-6963
▁arrange	-6964
▁declare	-6965
▁disable	-6966
▁minimum	-6967
▁orleans	-6968
▁polling	-6969
▁renewed	-6970
▁revenue	-6971
▁sailors	-6972
▁viewers	-6973
▁assassin	-6974
▁billions	-6975
▁dictator	-6976
▁executed	-6977
▁homeless	-6978
▁informed	-6979
▁learning	-6980
▁missions	-6981
▁missouri	-6982
▁requires	-6983
▁sexually	-6984
▁swimming	-6985
▁abandoned	-6986
▁contracts	-6987
▁elsewhere	-6988
▁guarantee	-6989
▁winehouse	-6990
▁bankruptcy	-6991
▁classified	-6992
▁historical	-6993
▁interested	-6994
▁politician	-6995
▁popularity	-6996
ira	-6997
iya	-6998
lah	-6999
elly	-7000
ocol	-7001
onia	-7002
ysis	-7003
▁egg	-7004
▁fol	-7005
▁hin	-7006
▁map	-7007
▁que	-7008
▁tie	-7009
▁unh	-7010
▁yas	-7011
berto	-7012
ledon	-7013
rence	-7014
rimin	-7015
▁chol	-7016
▁entr	-7017
▁flat	-7018
▁rand	-7019
▁rudd	-7020
▁stol	-7021
▁todd	-7022
▁whit	-7023
▁wimb	-7024
▁zero	-7025
ecraft	-7026
rupted	-7027
▁acres	-7028
▁annan	-7029
▁cards	-7030
▁consc	-7031
▁davis	-7032
▁eleph	-7033
▁grass	-7034
▁lanka	-7035
▁motiv	-7036
▁posed	-7037
▁stuff	-7038
▁timet	-7039
holders	-7040
▁blasts	-7041
▁centre	-7042
▁merkel	-7043
▁rodrig	-7044
▁spoken	-7045
▁topped	-7046
▁volunt	-7047
▁warner	-7048
▁compete	-7049
▁feature	-7050
▁interim	-7051
▁legally	-7052
▁monthly	-7053
▁passing	-7054
▁quoting	-7055
▁tension	-7056
▁arriving	-7057
▁giuliani	-7058
▁interven	-7059
▁purposes	-7060
▁studying	-7061
▁suddenly	-7062
▁addressed	-7063
▁attacking	-7064
▁defending	-7065
▁sectarian	-7066
▁technolog	-7067
▁violating	-7068
▁wimbledon	-7069
▁assessment	-7070
▁greenhouse	-7071
▁interviews	-7072
▁spacecraft	-7073
▁nominations	-7074
▁potentially	-7075
▁inauguration	-7076
mor	-7077
uro	-7078
▁fi	-7079
kins	-7080
otti	-7081
wers	-7082
▁dol	-7083
▁hou	-7084
▁ioc	-7085
▁jav	-7086
▁mud	-7087
▁sab	-7088
ching	-7089
orced	-7090
sfeld	-7091
▁barg	-7092
▁blan	-7093
▁burn	-7094
▁chip	-7095
▁dawn	-7096
▁dean	-7097
▁diet	-7098
▁dign	-7099
▁empt	-7100
▁hack	-7101
▁yoon	-7102
▁yuan	-7103
apolis	-7104
icting	-7105
▁discl	-7106
▁euros	-7107
▁heath	-7108
▁jerry	-7109
▁proof	-7110
▁rains	-7111
▁robot	-7112
▁rocks	-7113
▁shoes	-7114
▁theme	-7115
▁trend	-7116
▁trick	-7117
▁unpre	-7118
▁upset	-7119
▁waves	-7120
▁brutal	-7121
▁impose	-7122
▁listen	-7123
▁murray	-7124
▁reiter	-7125
▁stolen	-7126
▁surren	-7127
▁vulner	-7128
▁aftersh	-7129
▁cloning	-7130
▁granted	-7131
▁matters	-7132
▁resumed	-7133
▁sichuan	-7134
▁slammed	-7135
▁unident	-7136
▁verdict	-7137
▁vessels	-7138
▁astronom	-7139
▁attitude	-7140
▁consecut	-7141
▁disputed	-7142
▁exposure	-7143
▁function	-7144
▁momentum	-7145
▁campaigns	-7146
▁denuclear	-7147
▁departure	-7148
▁louisiana	-7149
▁spreading	-7150
▁strategic	-7151
▁agreements	-7152
▁experiment	-7153
▁represents	-7154
▁strengthen	-7155
▁violations	-7156
▁broadcaster	-7157
▁conversation	-7158
▁representing	-7159
▁unidentified	-7160
▁extraordinary	-7161
ti	-7162
aud	-7163
hdi	-7164
iel	-7165
abee	-7166
aman	-7167
aste	-7168
cons	-7169
omen	-7170
onda	-7171
▁dim	-7172
▁len	-7173
▁lun	-7174
▁nin	-7175
▁nut	-7176
▁tra	-7177
▁urg	-7178
apova	-7179
igned	-7180
itage	-7181
▁calc	-7182
▁caps	-7183
▁fert	-7184
▁gate	-7185
▁gray	-7186
▁iron	-7187
▁jews	-7188
▁meat	-7189
▁nice	-7190
▁opec	-7191
▁riot	-7192
▁sequ	-7193
arched	-7194
▁acted	-7195
▁clash	-7196
▁cleve	-7197
▁fever	-7198
▁frame	-7199
▁laugh	-7200
▁mehdi	-7201
▁postp	-7202
▁raquo	-7203
▁repro	-7204
▁risks	-7205
▁swift	-7206
▁usual	-7207
▁woods	-7208
▁apprec	-7209
▁arabic	-7210
▁behalf	-7211
▁client	-7212
▁handle	-7213
▁mental	-7214
▁powell	-7215
▁rumors	-7216
▁trucks	-7217
▁classic	-7218
▁constit	-7219
▁element	-7220
▁enterpr	-7221
▁outcome	-7222
▁pending	-7223
▁pulling	-7224
▁tickets	-7225
▁colonial	-7226
▁huckabee	-7227
▁indicted	-7228
▁injuring	-7229
▁occasion	-7230
▁rumsfeld	-7231
▁selected	-7232
▁teenager	-7233
▁criminals	-7234
▁deadliest	-7235
▁detainees	-7236
▁followers	-7237
▁marketing	-7238
▁residence	-7239
▁sentiment	-7240
▁sharapova	-7241
▁spiritual	-7242
▁strengthe	-7243
▁protecting	-7244
▁ultimately	-7245
▁consecutive	-7246
▁investigated	-7247
▁technologies	-7248
▁disappearance	-7249
▁significantly	-7250
sl	-7251
wr	-7252
yc	-7253
zi	-7254
cho	-7255
ico	-7256
osa	-7257
▁sg	-7258
fast	-7259
heim	-7260
icts	-7261
more	-7262
ribe	-7263
▁jur	-7264
▁lag	-7265
▁rot	-7266
▁tum	-7267
▁yel	-7268
ensus	-7269
oster	-7270
place	-7271
▁abol	-7272
▁blew	-7273
▁earn	-7274
▁embr	-7275
▁gian	-7276
▁hits	-7277
▁jane	-7278
▁jint	-7279
▁pand	-7280
▁pron	-7281
▁soph	-7282
▁unco	-7283
▁utah	-7284
keeper	-7285
▁cheap	-7286
▁grant	-7287
▁intel	-7288
▁preca	-7289
▁relax	-7290
▁roger	-7291
▁shape	-7292
▁wales	-7293
▁affili	-7294
▁kansas	-7295
▁models	-7296
▁notice	-7297
▁pilots	-7298
▁retire	-7299
▁slaves	-7300
▁suburb	-7301
▁switch	-7302
▁tracks	-7303
▁traged	-7304
▁barbara	-7305
▁classes	-7306
▁drawing	-7307
▁exposed	-7308
▁houston	-7309
▁inquiry	-7310
▁signals	-7311
▁collabor	-7312
▁detailed	-7313
▁deterior	-7314
▁earnings	-7315
▁withdrew	-7316
▁accidents	-7317
▁celebrate	-7318
▁denounced	-7319
▁happening	-7320
▁stationed	-7321
▁testified	-7322
▁virtually	-7323
▁employment	-7324
▁inspection	-7325
▁investigator	-7326
▁confrontation	-7327
fk	-7328
ela	-7329
ila	-7330
odo	-7331
▁wy	-7332
ache	-7333
ette	-7334
irac	-7335
moil	-7336
ores	-7337
rast	-7338
▁ads	-7339
▁ark	-7340
▁ast	-7341
▁cul	-7342
▁gig	-7343
▁kun	-7344
▁nov	-7345
▁ppp	-7346
▁rav	-7347
▁sao	-7348
antic	-7349
icken	-7350
▁eval	-7351
▁nurs	-7352
▁omar	-7353
▁shed	-7354
▁stir	-7355
▁ward	-7356
atched	-7357
iliate	-7358
▁blaze	-7359
▁bones	-7360
▁buses	-7361
▁chose	-7362
▁clock	-7363
▁crops	-7364
▁crown	-7365
▁decre	-7366
▁greek	-7367
▁oklah	-7368
▁pipel	-7369
▁ahmadi	-7370
▁arctic	-7371
▁belief	-7372
▁delays	-7373
▁denies	-7374
▁hudson	-7375
▁indeed	-7376
▁jintao	-7377
▁lahore	-7378
▁massac	-7379
▁pieces	-7380
▁prefer	-7381
▁proved	-7382
▁raided	-7383
▁safely	-7384
▁submit	-7385
▁wright	-7386
▁ceremon	-7387
▁counsel	-7388
▁factors	-7389
▁karachi	-7390
▁masters	-7391
▁objects	-7392
▁parking	-7393
▁plunged	-7394
▁reconst	-7395
▁robbery	-7396
▁tornado	-7397
▁transpl	-7398
▁turmoil	-7399
▁underst	-7400
▁clothing	-7401
▁israelis	-7402
▁landmark	-7403
▁resolved	-7404
▁stepping	-7405
▁construct	-7406
▁malaysian	-7407
▁nationals	-7408
▁projected	-7409
▁releasing	-7410
▁sentences	-7411
▁timetable	-7412
▁uncertain	-7413
▁undermine	-7414
▁characters	-7415
▁conclusion	-7416
▁designated	-7417
▁maintained	-7418
▁devastating	-7419
▁substantial	-7420
▁trafficking	-7421
▁specifically	-7422
▁conservatives	-7423
uz	-7424
bul	-7425
gue	-7426
iox	-7427
por	-7428
▁ni	-7429
ahar	-7430
ouch	-7431
rate	-7432
▁bae	-7433
▁dvd	-7434
▁ecu	-7435
▁fuj	-7436
▁lav	-7437
▁mbc	-7438
▁sci	-7439
▁une	-7440
▁upd	-7441
ooter	-7442
▁adds	-7443
▁barr	-7444
▁fant	-7445
▁nuri	-7446
▁rank	-7447
▁sett	-7448
▁tomb	-7449
intend	-7450
▁flown	-7451
▁imper	-7452
▁jihad	-7453
▁lewis	-7454
▁monet	-7455
▁mosul	-7456
▁phase	-7457
▁retal	-7458
▁timor	-7459
▁abuses	-7460
▁bodygu	-7461
▁carlos	-7462
▁desper	-7463
▁engage	-7464
▁kenyan	-7465
▁luxury	-7466
▁peters	-7467
▁physic	-7468
▁shaped	-7469
▁slated	-7470
▁steady	-7471
▁taylor	-7472
▁theory	-7473
▁titles	-7474
▁tunnel	-7475
▁vienna	-7476
▁viewed	-7477
▁warren	-7478
cedented	-7479
▁approve	-7480
▁condemn	-7481
▁ibrahim	-7482
▁inquest	-7483
▁marched	-7484
▁moments	-7485
▁pleased	-7486
▁tragedy	-7487
▁crossing	-7488
▁diseases	-7489
▁existing	-7490
▁midfield	-7491
▁oklahoma	-7492
▁prisoner	-7493
▁reducing	-7494
▁apologize	-7495
▁centuries	-7496
▁cleveland	-7497
▁execution	-7498
▁expansion	-7499
▁expecting	-7500
▁protected	-7501
▁sustained	-7502
▁indicating	-7503
▁industries	-7504
▁laboratory	-7505
▁personally	-7506
▁prevention	-7507
▁protesting	-7508
▁celebrities	-7509
▁effectively	-7510
▁presumptive	-7511
▁proceedings	-7512
▁recommended	-7513
▁respondents	-7514
▁unprecedented	-7515
hy	-7516
ui	-7517
▁pm	-7518
bell	-7519
iful	-7520
lock	-7521
tsin	-7522
▁hye	-7523
▁tar	-7524
▁zaw	-7525
▁brus	-7526
▁cats	-7527
▁dall	-7528
▁evil	-7529
▁publ	-7530
▁tact	-7531
▁tale	-7532
▁urge	-7533
consin	-7534
icated	-7535
lusive	-7536
pected	-7537
▁beaut	-7538
▁craig	-7539
▁disab	-7540
▁empty	-7541
▁maria	-7542
▁medal	-7543
▁naked	-7544
▁seung	-7545
▁songs	-7546
▁trips	-7547
▁amazon	-7548
▁chirac	-7549
▁disord	-7550
▁distur	-7551
▁interf	-7552
▁nobody	-7553
▁reluct	-7554
▁rounds	-7555
▁salmon	-7556
▁studio	-7557
▁sweden	-7558
▁telesc	-7559
▁unfair	-7560
▁vision	-7561
▁beneath	-7562
▁carries	-7563
▁cocaine	-7564
▁congrat	-7565
▁ecuador	-7566
▁knocked	-7567
▁marking	-7568
▁soaring	-7569
▁tougher	-7570
▁unnamed	-7571
▁yeltsin	-7572
▁deciding	-7573
▁dropping	-7574
▁endorsed	-7575
▁ballistic	-7576
▁extensive	-7577
▁featuring	-7578
▁rodriguez	-7579
▁socialist	-7580
▁surrender	-7581
▁teenagers	-7582
▁wisconsin	-7583
▁explosions	-7584
▁indication	-7585
▁suspicious	-7586
▁anticipated	-7587
▁impeachment	-7588
ca	-7589
je	-7590
jo	-7591
pi	-7592
sa	-7593
xi	-7594
amo	-7595
rah	-7596
tan	-7597
udh	-7598
▁ax	-7599
▁ft	-7600
acle	-7601
gger	-7602
hand	-7603
irut	-7604
loid	-7605
oric	-7606
rist	-7607
sell	-7608
uous	-7609
uten	-7610
▁dor	-7611
▁raj	-7612
▁sgt	-7613
▁unw	-7614
itors	-7615
izumi	-7616
ounce	-7617
▁cafe	-7618
▁cosm	-7619
▁deny	-7620
▁kath	-7621
▁kitt	-7622
▁plum	-7623
▁scar	-7624
▁celeb	-7625
▁cuban	-7626
▁genoc	-7627
▁keeps	-7628
▁parks	-7629
▁patri	-7630
▁pitch	-7631
▁risen	-7632
▁seeks	-7633
▁shell	-7634
▁thick	-7635
iveness	-7636
▁beirut	-7637
▁consol	-7638
▁embezz	-7639
▁extrad	-7640
▁hunger	-7641
▁implic	-7642
▁nicole	-7643
▁revive	-7644
▁scheme	-7645
▁shinzo	-7646
▁signal	-7647
▁stroke	-7648
▁writer	-7649
▁autonom	-7650
▁broader	-7651
▁chapter	-7652
▁clashed	-7653
▁genetic	-7654
▁koizumi	-7655
▁outlook	-7656
▁overtur	-7657
▁rowling	-7658
▁slipped	-7659
▁tabloid	-7660
▁touched	-7661
▁aviation	-7662
▁centered	-7663
▁contains	-7664
▁covering	-7665
▁discover	-7666
▁kentucky	-7667
▁mounting	-7668
▁resulted	-7669
▁stranded	-7670
▁wreckage	-7671
▁ambitions	-7672
▁consensus	-7673
▁displaced	-7674
▁economies	-7675
▁evolution	-7676
▁indicates	-7677
▁launching	-7678
▁predecess	-7679
▁prominent	-7680
▁promising	-7681
▁recording	-7682
▁aggressive	-7683
▁commanders	-7684
▁importance	-7685
▁membership	-7686
▁permission	-7687
▁unexpected	-7688
▁concessions	-7689
▁fundamental	-7690
▁universities	-7691
eav	-7692
oys	-7693
pay	-7694
rav	-7695
anic	-7696
cape	-7697
dick	-7698
held	-7699
iser	-7700
keys	-7701
roll	-7702
shot	-7703
▁dak	-7704
▁gil	-7705
▁pye	-7706
▁rah	-7707
iders	-7708
ingly	-7709
▁flex	-7710
▁gest	-7711
▁idol	-7712
▁jets	-7713
▁lies	-7714
▁lord	-7715
▁pard	-7716
▁puts	-7717
▁tiss	-7718
▁tool	-7719
▁wore	-7720
▁yard	-7721
arrass	-7722
attled	-7723
rehens	-7724
weight	-7725
▁aired	-7726
▁airpl	-7727
▁ambul	-7728
▁badly	-7729
▁branc	-7730
▁spani	-7731
▁steep	-7732
▁stops	-7733
▁zawah	-7734
ulating	-7735
▁downlo	-7736
▁endeav	-7737
▁funded	-7738
▁galaxy	-7739
▁hearts	-7740
▁rafael	-7741
▁repair	-7742
▁stayed	-7743
cription	-7744
▁acceler	-7745
▁advised	-7746
▁elderly	-7747
▁explore	-7748
▁flooded	-7749
▁happens	-7750
▁impover	-7751
▁jobless	-7752
▁longest	-7753
▁nigeria	-7754
▁passion	-7755
▁pressed	-7756
▁signing	-7757
▁teenage	-7758
▁totally	-7759
▁attached	-7760
▁frontier	-7761
▁heritage	-7762
▁longtime	-7763
▁michelle	-7764
▁overcome	-7765
▁searched	-7766
▁shoulder	-7767
▁slowdown	-7768
▁cooperate	-7769
▁embarrass	-7770
▁mandatory	-7771
▁penalties	-7772
▁principle	-7773
▁universal	-7774
▁discussing	-7775
▁frequently	-7776
▁geological	-7777
▁insurgency	-7778
▁philippine	-7779
▁principles	-7780
▁recognized	-7781
▁resistance	-7782
▁politically	-7783
▁consequences	-7784
▁impoverished	-7785
▁shareholders	-7786
▁manufacturers	-7787
dp	-7788
ji	-7789
ati	-7790
ima	-7791
iot	-7792
ums	-7793
▁dj	-7794
▁ja	-7795
▁om	-7796
cker	-7797
ials	-7798
indi	-7799
mail	-7800
math	-7801
ooth	-7802
stra	-7803
▁ing	-7804
▁kyu	-7805
▁mrs	-7806
▁pig	-7807
▁sed	-7808
▁sym	-7809
▁tae	-7810
▁tut	-7811
▁yoo	-7812
ables	-7813
emies	-7814
olved	-7815
rical	-7816
state	-7817
teria	-7818
vedev	-7819
▁curb	-7820
▁katr	-7821
▁mans	-7822
▁mide	-7823
▁rans	-7824
▁bears	-7825
▁daugh	-7826
▁diagn	-7827
▁flame	-7828
▁flash	-7829
▁forth	-7830
▁graph	-7831
▁jolie	-7832
▁lists	-7833
▁marit	-7834
▁naval	-7835
▁prest	-7836
▁puert	-7837
▁scrap	-7838
▁skull	-7839
▁spill	-7840
▁truce	-7841
▁accuse	-7842
▁charts	-7843
▁checks	-7844
▁commem	-7845
▁conced	-7846
▁elabor	-7847
▁forget	-7848
▁incred	-7849
▁judici	-7850
▁myself	-7851
▁rubble	-7852
▁stages	-7853
▁videot	-7854
▁battles	-7855
▁customs	-7856
▁deficit	-7857
▁disrupt	-7858
▁enemies	-7859
▁fighter	-7860
▁harvard	-7861
▁imagine	-7862
▁infrast	-7863
▁insists	-7864
▁mideast	-7865
▁prosper	-7866
▁railway	-7867
▁roddick	-7868
▁shocked	-7869
▁veterin	-7870
▁wrapped	-7871
▁chancell	-7872
▁describe	-7873
▁genocide	-7874
▁medvedev	-7875
▁pilgrims	-7876
▁pursuing	-7877
▁shutdown	-7878
▁supports	-7879
▁unaccept	-7880
▁aftermath	-7881
▁attracted	-7882
▁daughters	-7883
▁diplomacy	-7884
▁promotion	-7885
▁reference	-7886
▁resulting	-7887
▁christians	-7888
▁everywhere	-7889
▁goalkeeper	-7890
▁procedures	-7891
▁reiterated	-7892
▁accompanied	-7893
▁outstanding	-7894
▁personality	-7895
▁temporarily	-7896
▁peacekeeping	-7897
asa	-7898
hou	-7899
iti	-7900
net	-7901
phy	-7902
anim	-7903
uman	-7904
ylum	-7905
▁agg	-7906
▁ori	-7907
▁reh	-7908
igers	-7909
right	-7910
▁alab	-7911
▁chan	-7912
▁chat	-7913
▁diox	-7914
▁forg	-7915
▁horm	-7916
▁kand	-7917
▁pool	-7918
▁rush	-7919
▁topp	-7920
inding	-7921
▁canal	-7922
▁diver	-7923
▁mobil	-7924
▁raped	-7925
▁riots	-7926
▁shirt	-7927
▁shook	-7928
▁wider	-7929
inction	-7930
▁asylum	-7931
▁compon	-7932
▁dating	-7933
▁garden	-7934
▁limits	-7935
▁marath	-7936
▁riding	-7937
▁saving	-7938
▁taxpay	-7939
▁colored	-7940
▁dioxide	-7941
▁excited	-7942
▁futures	-7943
▁katrina	-7944
▁lifting	-7945
▁monarch	-7946
▁realize	-7947
▁singing	-7948
▁vermont	-7949
▁vitamin	-7950
▁abortion	-7951
▁analysis	-7952
▁anderson	-7953
▁disagree	-7954
▁disputes	-7955
▁focusing	-7956
▁incoming	-7957
▁judicial	-7958
▁kandahar	-7959
▁maritime	-7960
▁militias	-7961
▁minority	-7962
▁persuade	-7963
▁register	-7964
▁abduction	-7965
▁affiliate	-7966
▁	-7967
e	-7968
a	-7969
t	-7970
i	-7971
n	-7972
o	-7973
s	-7974
r	-7975
h	-7976
d	-7977
l	-7978
c	-7979
u	-7980
m	-7981
p	-7982
f	-7983
g	-7984
w	-7985
y	-7986
b	-7987
.	-7988
,	-7989
v	-7990
k	-7991
j	-7992
x	-7993
z	-7994
q	-7995
